#version: 0.2
Ġ t
Ġ a
h e
e r
i n
o n
Ġt he
e s
e n
i s
Ġ s
a t
r e
Ġ w
Ġ o
Ġa n
Ġ c
Ġ f
Ġ b
a n
t i
Ġ p
o u
o r
in g
i t
l e
a s
Ġ m
Ġ in
e d
Ġt o
ti on
a l
Ġ d
a r
Ġo f
Ġ is
Ġt h
Ġ h
w er
Ġ -
Ġan d
s wer
r o
l l
i c
Ġ g
Ġ l
Ġ T
Ġ n
en t
Ġ I
s er
u es
R A
o w
F T
U ser
D RA
DRA FT
ues tion
i v
c t
Ġ A
Ġ re
o m
Ġ Ġ
Ġ e
u t
Ġb e
Ġan swer
c e
s t
Ġ q
v e
i on
l d
s e
Ġq uestion
Ġ y
l y
o t
ĠT he
i d
Ġth is
Ġ on
Ġ W
Ġ S
o o
e t
i r
he r
Ġ C
u r
a d
at ion
Ġs t
Ġy ou
a m
a y
iv en
Ġ P
Ġ it
i e
Ġf or
Ġo r
Ġ u
Ġa re
i m
a c
at e
i g
n swer
Ġ "
Ġf o
Ġw h
Ġth at
a g
Ġ B
Ġp ro
ll ow
i l
Ġ G
it h
à ¤
v er
Ġ Q
Ġ 1
Ġ r
Ġfo llow
Ġfollow ing
Ġw ith
Ġ H
t er
a p
o l
c h
t h
v ie
Ġa s
es s
Ġc on
Ġp l
Ġ Y
Ġ he
o s
Ġw as
u m
i ll
Ġm o
er s
Ġ M
n d
ou ld
Ġ D
Ġ (
k e
ro m
en ce
Ġd e
Ġn e
i f
vie w
is t
Ġ R
t e
A nswer
Ġt r
Ġf rom
b le
es t
u l
Ġc om
' s
as e
an t
a ve
Ġc h
Ġ '
Ġd o
Ġs u
Ġ v
Ġs e
u s
ĠW h
Ġg iven
Ġ N
Ġa l
a in
Ġ E
Ġa b
x t
p ut
ent ence
o p
Ġ 2
Ġb y
ig h
an d
d u
ĠY ou
Ġw or
Ġa t
ag e
ĠQ uestion
ĠI n
Ġ F
ĠG iven
as k
Ġh ave
Ġs h
Ġ j
Ġc an
oo d
t her
Ġt ask
r i
a ct
ti c
en d
tion s
p e
ĠĠ Ġ
Ġs entence
Ġ O
an s
om e
u n
ic h
Ġm e
m ent
Ġt e
iv e
Ġn ot
or t
Ġ k
al l
Ġre view
ou t
T he
Ġe x
t o
Ġ le
igh t
u d
Ġwh at
Ġp ar
e l
Ġw ill
Ġ J
ic e
ĠA nswer
Ġ ,
Ġ L
g h
Ġa r
p p
Ġpro du
u c
an g
it y
as s
ĠR e
r it
is h
Ġw he
e ct
ou nd
' ,
ã ģ
a ce
Ġ à
le ase
a k
a b
Ġin to
) .
i es
oo k
u st
on g
ar d
at ed
ĠWh at
Ġab out
en er
Ġon e
Ġ .
Ġ1 9
Ġs o
ou gh
Ġw e
am e
re ct
at er
f f
ac k
Ġo ut
al ly
on e
Ġp r
in e
Ġmo re
id e
Ġt w
Ġtr ans
an y
a v
Ġprodu ct
0 0
u e
Ġb u
' t
er e
c ess
ver y
t s
Ġa c
Ġw rit
Ġc l
u re
b er
it le
Ġh is
a ble
or y
Ġcom p
in d
Ġl i
ĠP lease
le d
e p
Ġwor k
Ġw ould
Ġb ut
a u
i ld
Ġh as
à ¥
e m
à ª
Ġo p
Ġo ther
Ġn o
Ġu n
ĠC h
o d
o c
ou n
ĠI t
Ġ Ø
ĠT h
Ġp os
ĠH e
a ke
o re
Ġthe y
Ġ à¤
Ġc or
Ġ ro
ti ve
Ġdo es
Ġs ome
Ġtw o
as t
Ġwh ich
i an
Ġu s
e ar
Ġg o
or m
ic k
p l
ap p
o se
t en
Ġa ll
c es
ir st
a il
i a
ers on
c re
te xt
o b
Ġof f
r y
. .
Ġf e
ou r
Ġyou r
en s
i tion
i o
ĠRe view
Ġu p
" ,
ac h
Ġ en
Ġthe ir
Ġpl ace
Ġf irst
ar y
Ġcon t
u tion
on d
Ġl ist
n g
Ġp o
Ġ her
à °
Ġh ow
q u
Ġbe c
is e
o ve
at ive
Ġ K
à ¦
g e
Ġ im
Ġs p
Ġt im
Ġg r
i p
Ġr es
re d
Ġli ke
st r
Ġa m
Ġm y
n ow
as ed
al s
o ld
Ġcor rect
i z
ff ect
Ġh ad
re at
Ġb l
re e
ate g
f ter
Ġ if
o g
Ġp er
Ġg et
u b
Ġb ook
Ġf il
ou s
Ġ U
ar t
ĠI f
Ġwh o
r b
à ´
Ġw ater
au se
ĠT itle
Ġpl ant
Ġc ateg
ĠYou r
Ġsu pp
Ġg ener
ap h
Ġa d
Ġe v
ay s
p er
ation al
Ġanswer s
Ġd id
Ġthe re
s o
p ort
ent s
Ġin put
oun t
Ø §
Ġthe m
ĠTh is
Ġan im
Ġp e
a i
c l
c i
an ce
ĠI s
n e
Ġs he
k s
op le
ur n
ĠY es
f in
ti t
Ġh app
Ġk now
Ġin s
at ur
Ġwhe n
ĠĠ ĠĠ
Ġne w
Ġf l
Ġ very
Ġbe l
le ct
u g
Ġd is
Ġsh ould
i ed
Ġ 3
Ġd es
Ġtim e
or d
Ġfil m
Ġre c
Ġy ear
I n
Ġc ar
Ġne ed
Ġin f
oo l
Ġtrans l
Ġw ant
e ll
r aph
Ġbe ing
l ish
r ough
ic al
Ġc o
s i
Ġal so
Ġw ere
Ġb ir
Ġpro cess
Ġfor m
Ġg ood
Ġth an
Ġcom m
Ġpe ople
er m
i tive
" .
Ġwor d
i le
Ġa fter
Ġte xt
ĠE ng
str uc
g ative
Ġn um
f er
Ġal b
Ġst ud
Ġbu ild
r a
Ġl ess
Ġs pe
Ġme an
ang u
Ġre ad
ĠN o
Ġalb um
Ġm any
ic es
Ġs m
Ġpl ay
Ġp h
ĠH ow
Ġthe n
ro w
he s
à ¨
Ġd i
Ġbe t
nd er
ĠP ro
Ġcon text
Ġb est
it e
Ġ 5
Ġne gative
Ġo ver
Ġl angu
Ġ ed
Ġpos itive
Ġwrit ten
ut put
struc tions
Ġa g
ã Ĥ
at es
Ġmo st
w e
ow n
ĠEng lish
ve l
oo se
Ġ Ù
Ġan y
Ġp ass
l es
le te
Ġth rough
atur al
Ġs y
ĠIn structions
Ġj ob
ac her
O utput
ble m
fin ition
à ®
Ġbuild ing
Ġv ill
ĠWh ich
Ġ2 0
Ġu nder
Ġh old
ĠO p
Ġd et
he n
Ġar t
Ġn atural
Ġoff ice
p le
o ices
Ġlangu age
â ĺ
âĺ ħ
at h
Ġp re
Ġ V
Ġpr es
Ġon ly
à ¸
Ġanim al
Ġvill age
â Ģ
ĠA r
ĠW ould
as es
Ġcomp any
Ġf act
Ġit s
Ġ 4
ad e
ation s
ul t
Ġthe se
tic le
ag raph
at ing
Ġm u
ri end
g y
Ġa pp
Ġu se
or n
as on
o y
ĠS t
Ġ2 00
r ic
Ġv al
ĠC on
à¤ ¾
ch ool
en ti
Ġab ove
. "
Ġq u
Ġbir th
p r
he re
Ġtrans port
a re
Ġbe en
j ect
m er
Ġre l
Ġbu y
Ġb ack
in k
Ġed uc
Ġst ep
Ġart ist
p t
Ġcl ass
Ġp erson
si ble
os ed
Ġa ir
Ġbec ause
Ġ ke
Ġin cre
Ġmu ch
ak es
Ġwrit e
Ġc ol
ri b
Ġpar agraph
Ġop tions
ig n
? "
Ġm ake
Ġf riend
tit ution
if e
ing s
Ġin d
= =
a us
c tion
h at
or ies
ot h
ot her
Ù Ĩ
f t
Ġt y
Ġa th
Ġm ay
Ġout put
in t
Ġus ed
Ġe ffect
Ġsu b
Ø ±
Ġb r
ĠD e
o st
or s
Ġd r
Ġtransport ation
at ter
u p
Ġst ory
Ġm an
ĠP erson
Ġd if
f ul
od y
Û Į
en ces
l and
Ġins titution
Ġath lete
Ġeduc ational
is s
Ġn ame
he d
Ġc ould
Ġhold er
a w
Ġyear s
es e
Ġsm all
Ġf ound
Ġe ach
Ġ ener
ĠThe y
r en
Ġcon s
ar s
Ġde c
Ġwhe ther
à «
Ġl ook
Ġch ar
Ġto o
Ġst ate
om m
Ġbl ood
Ġpar t
g en
v ed
Ġmo vie
f ore
orm ation
Ġener gy
Ġs ame
Ġj ust
if y
a ir
it ed
Ġm us
Ġs chool
ã ĥ
ĠOp tions
st em
Ġwhe re
Ġ i
Ġg reat
Ġcateg ory
g an
a le
Ġf ood
ĠD et
Ġe le
Ġin ter
ai led
Ġdes c
h ing
is m
Ġs er
Ġ20 1
c c
t ing
r rb
Ġinf ormation
ou se
Ġs ay
l rb
p h
ĠD o
i ly
Ġc ell
Ġc al
Ġs ur
ur b
Ġd own
Ġc he
Ġe ar
ar m
Ġe very
e acher
on s
Ġin st
Ġhapp ens
ĠS he
Ġcont ain
un g
en se
c ed
Ġc ount
Ġs ent
d er
ĠA n
Ġa ffect
Ġf ind
Ġl ong
ĠH ere
In put
Ġnum ber
à µ
Ġpass age
g r
we en
Ġo b
Ù Ħ
Ġwe ll
c k
w ard
in al
l p
ar k
Ġch ang
Ġde finition
Ġst r
Ġcateg ories
Ġsy stem
c ond
ĠDet ailed
at her
ĠA nd
Ġtransl ate
g g
Ġs c
Ġd ay
Ġpro v
Ġfe el
Ġà ª
Ġt itle
ĠA s
a z
Ġpres ent
Ġb ody
Ġbet ween
Ġim p
se l
ail s
Ġ [
Ġse e
Ġh im
Ġbe fore
Ġpro blem
g et
Ġ 6
Ġ- -
Ġm ust
Ġe m
in n
Ġsh ort
b ers
Ġl ar
Ġdif fer
Ġh um
Ġwh ile
in s
e w
à ±
Ġre m
Ġhe lp
Ġre ason
ĠU n
! !
Ġ ×
Ġd on
u ally
Ġl oc
Ġop tion
Ġdesc rib
ough t
Ġh igh
b r
Ġl ife
ĠCon text
i re
Ġre p
v es
ti es
Ġl o
Ø ¯
ver s
Ġar ound
m ber
x y
Ġo ld
i al
) ,
b all
Ù Ī
Ġm ade
à¥ į
Ġsent ences
o ice
Ġse cond
Ġsupp ose
à ¬
w n
Ġ end
Ġd ate
ment s
Ġcomm on
Ġsu ch
ur ing
ol ution
o h
Ġf am
u ll
Ġg l
st and
t le
an k
g er
r es
ĠW hen
ĠN ot
a h
Ù ĩ
ic an
Ġch oose
p ic
Ġ1 8
d ay
Ġword s
Ġgener ate
Ġa ut
Ġre t
et s
ul ar
Ġs it
Ġc ap
âĺħ âĺħ
ĠN ow
urb ation
Ġo cc
Ġh ome
t urbation
ar n
w ise
cl ud
Ġbel ong
al k
Ġs l
am es
Ġc aus
Ġh ig
xy gen
er ing
à¤ °
Ġdet ails
omm end
Ġunder stand
r act
ĠS h
Ġac c
à ¯
Ġe xt
w ay
Ġrec ommend
Ġl iv
i ous
Ġst art
ĠS entence
Ġr ight
Ġb io
y s
Ġc r
ĠØ §
Ġev en
Ġm on
Ġth ree
Ġe lect
.. .
ĠThe re
Ġas k
W hat
Ġg row
Ġl ast
Ġs im
Ù ħ
Ġa ct
ĠF act
à §
ĠB ut
Ġb o
Ġl ight
ĠPro cess
Ø ª
ou p
at ure
Ġfact s
Ġb oth
Ġs a
at ch
Ġne xt
one y
à¥ ĩ
ug g
ĠB e
ĠF or
Ġspe c
' re
p ar
t y
Ġth ink
iv ers
Ġother wise
Ġval id
s s
' m
Ġw ay
ĠRe ad
Ġp ol
ĠCh oices
Ġ 7
Ġcal led
b on
Ġb re
Ġte ll
Ġm in
Ġ 8
Ġe l
Ġg ot
Ġtransl ation
Ġdiffer ent
ion s
Ġch ild
os p
at ic
Ġin clud
i x
ĠW e
Ġc ity
Ġs ing
Ġpar tic
Ġchar act
le x
in a
Ġar ticle
Ġà ¦
Ġl ab
ĠA mer
u al
ĠA l
il ity
Ġpl ot
Ġad d
à ²
w ays
Ġc le
Ġin v
Ġor gan
ant s
du ct
Ġm ight
Ġag ain
ak ing
r al
Ġb ased
Ġex am
Ġh y
i rect
ĠĠ ĠĠĠ
av es
Ġre f
Ġde cre
' .
Ġ $
ĠM y
Ġ19 9
Ġty pe
Ġ ent
Ġa p
Ġle ft
ti m
as h
ci al
Ġdi rect
id es
Ġimp act
id ed
ĠC an
an ces
Ġth ose
Ġsupp osed
at is
pe ct
ag es
Ġm oney
Ġwith in
i b
in ce
Ġincre ase
v en
Ġ1 0
Ġor ig
f ied
Ġt urn
Ġs ense
ou th
Ġl ow
f orm
Ġn ow
Ġpos sible
l ic
Ġo xygen
Ġre g
Ġre le
Ġcom e
Ġ ver
Ġm en
N o
Ġc ent
c er
Ġde ath
Ġp op
Ġl ot
Ġà ¨
h ip
P ro
Ġp lease
Ġmus ic
Ġt ake
Ġre ally
ti l
om et
am p
Ġwor ld
i ke
Ġhum an
S t
Y es
t on
if ic
Ġ z
ĠT r
Ġph r
es tion
ĠS ugg
m an
Ġm et
or k
Ġ Ċ
Ġfe w
Ġ ==
ĠAr ticle
Ġ== =
Ġb ig
ol ve
Ġgr oup
Ġcell s
Ġor der
Ġs k
Ġd uring
Ġret urn
Ġas s
Ġbel ow
Ġke ep
Ġal ways
Ġab s
Ġbet ter
Ġper turbation
Ġknow n
Ġl it
Ġr est
ĠN ew
Ġres ult
Ġs et
at s
Ġg re
_ _
it s
ic t
ter n
Ġsh ow
àª ¾
Ġf r
ĠI nd
vel op
e e
m a
Ġb ro
Ġh ouse
ĠPerson X
oh n
t ain
Ġev ent
ĠC l
ĠO n
atis fied
Ġplant s
Ġfam ily
Ġre pl
ĠP ick
av or
à ©
ap an
ut e
ĠM r
Ġc ause
Ġst ar
Ġr un
om an
á ŀ
b e
al th
iz e
Ġ 9
Ġt est
Ġc ur
Ġob ject
Ġm ar
ĠS p
ward s
ã Ģ
in es
Ġm iss
Ġr ain
Ġsome one
Ġcons id
om es
Ġstate ment
Ġgener ated
Ġp ut
Ġan other
iv er
àµ į
Ġimpact ing
t ed
sel f
c y
ol og
Ġstud ents
Ù Ĭ
Ġm ed
Ġle t
oc k
Ġg u
Ġt erm
Ġof ten
Ġle arn
Ġwe e
Ġte m
Ġ19 8
Ġb orn
Ġnum bers
à º
Ġs w
Ġde velop
Ġanim als
le y
ang e
ter s
os sible
x ide
Ġcar bon
Ġpr ess
Ġfriend s
i er
ti ll
est ed
m y
Ġinst ance
Ġl ung
ĠB ased
Ġdid n
re am
ti v
Ġhe at
ĠHe ad
ĠPro duct
Ġ es
ot hes
en e
c ks
Ġf un
ĠA d
v ing
ĠDo es
Ġf our
Ġin te
id d
Ġfo ot
ain s
Ġl ove
à¤ ¿
Ġtr y
Ġbe g
Ġle ad
Ġac id
or th
ĠB io
Ġf in
Ġh ard
Ġgo ing
en g
ĠJ apan
ĠT eacher
ĠS e
av ing
Ġsit u
l s
Ġw ent
Ġst ore
ud ent
Ġcaus es
Ġin t
Ġl ine
Ġf avor
Ġm akes
im ent
ul ti
Ġat t
a x
ur ch
io xide
Pro blem
Ġ 0
Ġre qu
iz ed
Ġch oice
atter ing
Ġsa id
Ġg ive
ĠWh y
Ġocc ur
er c
omet hing
i ties
Ġd ist
Ġà °
ord ing
Ã ©
en n
an e
ro p
ĠS o
ĠS olve
Ġmo ve
Ġ19 7
Ġhapp en
T eacher
he st
in ts
Ġle vel
St udent
Ġexam ple
Ġ :
ĠW here
Ġwh y
S olution
Ġo wn
ĠDe finition
get her
Ġs ong
Ġrep ly
ent ly
ĠB l
c tive
Ġd ioxide
Ġu ser
Ġch oices
Ġà¤ ķ
ce p
Ġse par
à¥ Ģ
on t
Ġm il
Ġlab el
c o
le t
Ġne ar
] .
f l
Ġm ain
Ġm ulti
and s
Ġex p
Ġ _
ac ed
Ġs ound
Ġres p
y m
it al
Ġte am
is ion
Ġto gether
Ġex per
Ġele ment
ĠAmer ican
Ġg ame
Ġe as
ivers ity
n ess
Ġs al
Ġth ings
Ġquestion s
Ġreason able
? ",
× Ļ
Ġa way
it her
Ġro cks
al ity
à¤ ¨
Ġv ol
o wer
Ġs till
Ġbec ome
Ġlar ge
Ġe at
Ġare a
ie ld
à¤ ¤
Ġs omething
Ġo ur
Ġro ck
e ver
v ail
ĠT w
ĠS ome
Ġus ing
Ġn ational
à¤ Ĥ
Ġse ver
i ble
er ed
Ġp ick
Ġre d
E R
er y
Ġw ind
ĠE ar
uc k
ĠJapan ese
ĠA t
ĠJ ohn
au gh
Ġpo wer
ĠB u
I N
Ġb us
ur es
Ġreview s
Ø ³
Ġdis s
Ġclass ify
Ġcount ry
Ġw ond
Ġhe ard
ĠCh oose
on es
Ġb ought
an n
Ġin c
Ġhig hest
gr ound
Ġlung s
f ic
Ġs enti
u ary
iv ed
Ġ' '
osp here
Ġfoot ball
Ġg ir
Ġro om
Ġcharact er
Ġm ag
ĠT ail
un e
Ġbook s
Ú ©
Ġc ust
Ġcol le
Ġsub ject
Ġpress ure
is on
om er
Ġcon vers
ãģ ®
ĠWh o
op e
Ġorig inal
vail able
a j
Ã Ń
ro ss
ĠC om
ĠØ ¨
ĠÙ ħ
Ġmon th
Ġmen tion
is hed
ĠP ossible
Ġat m
i i
Ġte acher
an ish
Ġsu gg
Ġad v
Ġdecre ase
Ġtem per
l or
Ġr ate
ĠF r
00 0
pr ess
o int
p othes
Ġc re
Ġf ree
Ġp ub
al se
Ġh ot
Ġb ad
Ġdoes n
Ġear th
Ġrele ased
pothes is
e ad
r ess
Ġme m
âĢ ĵ
Ġwee k
l u
Ġ19 5
Ġchild ren
d s
× ķ
Ġ1 2
Ġsenti ment
Ġe qu
em s
Ġche m
Ġchang es
Ġh our
Ġsu n
Ġc are
Ġm ater
Ġpro p
Ġper form
Ġsur f
idd le
I I
y l
ri es
Ġex erc
Ġso il
Ġ er
id s
ne y
Ġw ar
ver n
Ġf ull
a red
c le
Ġ id
Ġm other
à¤ ¯
Ġbel ie
n er
u nd
Ġlit tle
1 9
Ġy es
Ġ1 5
Ġhe re
ĠM ay
ĠIt al
à¯ į
ĠEar th
th ing
Ġt re
Ġg ues
ĠUn ited
m e
Ġsever al
Ġs ol
ĠP l
ist s
Ġpo ll
am er
n ot
i red
l ess
Ġe gg
Ġplay ed
se p
Ġ19 6
T r
o k
Ġ ice
Ġ ve
ĠM ar
Ġre ac
ce pt
Ġind irect
ĠNot e
Ġmention ed
' ve
i um
ur y
ĠG r
Ġty p
Ġ &
Ġhe alth
ĠO ne
Ġbre ak
ĠTw o
Ġs ince
re ad
ĠG ener
Ġtr ave
Ġconvers ation
. ,
2 7
ĠA fter
ul ation
Ġpresent ed
j oy
is ter
Ġs ign
ot s
Ġpro te
Ġr ad
Ġgo es
ro du
à¦ ¾
Ġf ive
Ġyou ng
Ġwith out
Ġus ually
Ġcur r
ĠSp anish
i ent
u ro
Ġw arm
iv es
Ġex pl
Ġex pect
Ġwant ed
Ġdet erm
Ġatm osphere
Ġre al
n o
Ġcont in
ed iment
Ġd iv
Ġpro f
b o
Ġà ´
b y
ĠE x
Ġtim es
Ġstud ied
Ġbuy ing
ĠC ar
ate ly
Ġval ue
Ġn ight
ĠA m
Ġap pe
i k
Ġf ar
Ġac tion
Ġget s
Ġaut om
Ġne ver
Ġpo st
Ġsitu ation
Ġpos ition
Ġdec ide
Ġ <
t he
ĠP ar
um p
tic al
h or
r is
Ġf all
Ġp ie
ir on
ul ate
Ġsu re
Ġop en
Ġen g
Ġrec ord
ir es
Ġun til
à± į
Ġspec ies
c hes
Ġ ?
Ġ `
Ġli k
ĠBu ild
Ġn on
Ġ19 4
Ġstud y
y es
Ġ Z
Ġs ays
Ġchang e
Ġacc ording
Ġref ers
u ct
y d
Ġinf lu
Ġgues s
Ġs ci
Ġde p
Ġsu it
oc i
Ġele ments
o ber
Ġen ough
Ġke y
O R
b re
Ġc ase
Ġk ind
Ġhy pothesis
Ġlow est
Ġmiss ing
ĠItal ian
c u
u el
Ġb urn
Ġ1 7
Ġhe ad
Ġsurf ace
Tr ue
Ġw atch
in ese
Ġbe h
Ġv ar
F alse
o v
Ġt one
as ter
Ġth ought
iv ing
ĠP ol
Ġexerc ise
am m
Ġv is
à« ĩ
cep ts
Ġprov ided
at he
âĢ Ļ
ĠSt ates
ify ing
Ġautom atic
al f
Ġl os
Ġcust omer
b s
ĠA ust
Ġins ide
Ġcle an
2 0
um ent
Ġtemper ature
G iven
l ight
Ġw oman
u ly
Ġre ce
Ġhe art
Ġhapp y
Ġlo wer
c ent
w hat
Ø ¨
Ċ Ċ
Ġcontain s
Ġexper i
c om
Ġv ir
iz ation
Ġsupp ort
Ġt alk
Ġc at
ack s
Ġe ither
à¤ ķ
ĠCh inese
Ġen joy
Ġloc ated
g ar
s ide
Ġd ise
id ent
Ġcom put
Ġhig her
Ġse ason
us s
Ġwork s
Ġsepar ated
Ġ *
ĠJ an
Ġle ast
Ġmean ing
ĠSh ould
ĠA ll
Ġcon ve
C h
Ã ³
Ġe ver
Ġtoo k
A L
Y ou
Ġto t
Ġg as
Ġl a
Ġbec omes
Ġim port
×ķ ×
Ġ` `
ĠP ort
ig ure
il ar
Ġcorrect ly
Ġs um
Ġs ediment
Ġdo g
ic a
Ġg en
Ġlike ly
Ġl ive
Ġar r
Ġpo ints
Ġplay ing
Ġsl ow
ĠØ§ ÙĦ
Ġl ay
ce an
ĠCl ass
r on
Ġt akes
in ess
Ġim age
×Ļ ×
Ġgir l
g o
l ine
Ã ¡
Ġb all
Ġse lect
Ġcomp lex
tit y
Ġser ies
a it
g le
Ġ +
Ġst and
Ġother s
à¦ °
Ġdescrib e
Ġinv ol
uro pe
Ġc ool
Ġb oy
Ġgo vern
Ġorgan ism
Ġf ish
Ġop er
Ġelect ric
Ġh and
Ġcon ver
Ġsh op
Ġvalid ate
Ġver ifying
ĠSugg ested
q ue
Ġ Ð
Ġst e
Ġà ®
Ġwe ight
Ġread ing
Ġn ames
i et
Ġf re
Ġf inal
ro om
row n
e x
Ġm atter
Ġrepl aced
1 0
a e
Ġ )
Ġs atisfied
Ġp red
h y
ac y
ess ion
Ġcon f
Ġinter est
inn ing
" ?
Ġa llow
ud d
Ġback ground
Ġear ly
Ġdeterm ine
Ġw on
Ġst op
ĠQ u
Ġpar k
Ġac tiv
aj or
c on
Ġb ul
Ġm ark
ĠThe se
ĠP er
im e
O N
ow s
oo gle
Ġphr ases
Ġc ard
Ġf ather
Ġb ed
or es
ĠH is
Ġagain st
Ġp air
Ġth ir
c ap
Ġp ack
Ġh aving
cl es
à Ń
Ġd ig
Ġcont ro
Ġstr ong
Ġid enti
at or
Ġw alk
Ġprodu ced
Ġw ood
Ġpar ents
Ġphr ase
Ġj ud
ĠAr ab
Ġincre ases
Ġwond ering
er tain
Ġgr ound
Ġsing le
Ġsuit able
Ġconve y
Ġto p
ĠAd d
Ġimport ant
i am
ut es
ĠG reat
o or
Ġw aves
ic ate
Ġre fer
Ġcon d
Ġch ances
Ġprop osed
e ch
Ġa ble
Ġc ame
Ġh ist
ĠG erm
Ġr is
ren ch
Ġpart y
Ġprov ide
Ġaut hor
n t
v ice
Ġp ain
il t
ol ute
Ġrel ated
Ġem o
Ġd ays
raph y
ĠPort ug
E S
v o
al og
ĠT H
Ġn ice
ap er
Ġde f
à° ¿
Ġfavor able
1 5
Ġc all
Ġh alf
ĠT o
tic ally
ĠL e
Ġpre v
Ġspec ific
Ġdirect ly
à ¹
Ġm ill
Ġto wn
Ġd am
ĠOp tion
Ġsim ilar
Ġbo x
re y
Ġtr ue
xt ract
Ġcan not
àª °
à§ ĩ
Ġc our
. ",
f y
o le
ĠR ob
à¥ ĭ
à° ¾
ĠÙ Ī
ĠPerson Y
Ġabs or
Ġde pic
ri ed
Ġwe ather
Ġbl ack
pr es
ign ed
Ġm ajor
Ġl ater
Ġ1 3
ĠO ther
Ġbec ame
Ġ X
Ġf er
Ġto pic
ot t
ac es
Ġpro b
Ġtw e
a ur
Ġ est
Ġp an
ct or
Ġ1 4
Ġac cepts
Ġpol i
Ġpartic ip
Ġd ra
fin ite
Ġconsid ering
eng th
Ġhour s
m ost
Ġw r
Ġwas te
Ġsp ort
A M
iv al
ric t
Ġlook ing
az on
Ġstart ed
à¤ ²
ul es
Ġgener al
ug ust
Ġp ot
Ġcl ub
ens ive
Ġform ed
Ġdescrib ing
Ġsugg estion
w ork
ï ¼
Ġs on
Ġto day
ĠG oogle
Ġen v
k en
Ġp en
ic s
ab or
Ġim m
Ġspe ak
Ġqu ality
ĠSugg estion
Ġabs olute
Ġtot al
c hed
Ġ1 6
tic s
orn ing
à« į
o ll
r ing
Ġc old
Ġb as
Ġl aw
i pp
Ġb ase
ĠW or
ĠC D
ri p
Ġcomp lete
Ġam ount
Ġrel ations
Ġrequ ires
3 0
Ġ1 1
Ġab ility
Ø§ Ø
c tions
g ers
n ing
s h
Ġl and
Ġdo ing
rit e
Ġliv ing
Ġbro ther
Ġdiss atisfied
Ġ Ú©
Ġc y
Ġp ast
am ed
ĠG al
Ġ3 0
Ġinflu ence
i od
ĠA lex
ĠU S
T h
o es
Ġf ield
Ġp urch
Ġpro per
ãģ Ĺ
ĠCh ina
à´ ¿
Ġspe cial
Ġpop ulation
Ġtre es
on y
Ġs aw
Ġs ize
Ġno vel
Ġco ver
Ġgl uc
Ġass oci
olog y
ĠArab ic
c an
Ġwork ing
Ġel se
Ġbelie ve
Ġdepic ts
finite ly
c ing
n y
Ġan n
Ġc ut
Ġb at
Ġm orning
Ġis land
Ġhe ight
Ġgre en
Ġb and
Ġm iddle
ĠP e
ie f
Ġsu c
ĠE xtract
Ġth ing
ic ian
Ġg ave
Ġ2 5
un ch
' ll
Ġc ook
Ġp ict
ce ll
ul ts
Ġex press
Ġun iversity
Ġget ting
Ġco st
Ġform s
ract ed
Ġpub lic
g est
h a
y e
Ġth ough
ct ober
ĠW ater
ther n
act er
Ġte le
ud e
Ġneed ed
Ġcharact ers
tim es
iron ment
m in
ap or
Ġmonth s
c he
m it
ag ue
Ġse a
end s
Ġev ents
Ġfl attering
à ³
le ep
Ġm aking
om s
ĠB rit
Ġun fl
Ġunfl attering
P ick
i ation
in c
Ġp at
Ġm ass
ĠC ol
ĠØ ¯
Ġpartic les
Ġl ate
ill s
ĠM ary
Ġpo int
Ġph ys
à§ į
ĠPol ish
Ġprob ab
, "
r ating
Ġs our
Ġd ie
om en
ĠG re
us h
ãģ Ł
ure d
Ø§ ÙĨ
Ġsy m
is ed
Ġc ir
Ġg e
Ġcom es
ĠL ee
Ġpr ice
i or
Ġ ide
ĠThe n
Ġme l
Ġnot hing
Ġle aves
Ġsk in
" "
Ġs ide
Ġo cean
Ġm ount
if ied
ĠN orth
Ġal ong
ĠF rench
Ġpar ts
Ġà¤ ¸
Ġen ti
Ġco al
Ġbir d
Ġcle ar
Ġpoll ution
ĠGener ate
P T
b ut
Ġt er
Ġan g
ol i
Ġse x
ĠE urope
Ġam ong
Ġper iod
Ġenv ironment
Ġb ab
Ġar g
Ġafter wards
Ġph ot
Ġf ur
Ġv ide
ĠE X
Ġnew s
g raphy
l ing
r ad
s on
Ġd en
ĠC ount
ĠG u
Ġpo or
Ġrelations hip
Ġst ay
ãģ §
Ġegg s
Ġcomput er
en cy
Ġc op
Ġl im
Ġq ue
Ġpl aus
ĠN e
end ing
av y
àª ¨
.. ..
Ġinclud ing
w h
ĠS k
Ġit ems
ĠD on
ãĢ ģ
' ]
O p
Ġf uel
Ġg if
ĠM o
ãģ Ħ
r ist
re t
Ġsu per
Ġwor th
Ġle g
ãģ ¯
Ġproduct s
Ġcl ose
enti al
Ġsmall er
Ġlevel s
Ġcolle ge
athe red
Ġtwe et
Q uestion
Ġt able
es se
ĠT om
Ġpro gr
Ġmo le
te mber
ain ing
Ġprodu ce
ãģ «
à¨ ¾
Ġqu ick
Ġsub st
ĠAs h
Ġidenti fy
H ow
m ise
an a
ĠC ould
te m
Ġout side
Ġcomm un
Ġcol lect
Ġel abor
Ġmem bers
Ġprof ession
ic tion
ĠA ir
Ġre lease
om in
Ġst ates
Ġpl an
ind i
Ġap art
Ġexpect ed
Ġbul let
i ti
ad a
Ġrel ig
Ġsal t
pres ent
Ġg athered
à¤ µ
ol es
Ġbio graphy
ĠAm azon
u se
Ġe ff
Ġpr ac
Ġproblem s
Ġvir us
i tions
r ation
y ear
Ġw ait
ĠC amer
Ġfor ce
ĠF orm
Ġdec ided
Ġmin utes
Ġsong s
Ġelabor ate
A R
b ly
ĠT V
à¤ ®
app ed
Ġwho le
Ġcount ries
Ġresp on
IN AL
Ġlik es
ĠAdd ison
ĠEX AM
Ø ¹
as ing
Ġde l
ci ally
Ġsim ple
Ġvol can
ĠClass ify
Ġemo tion
Ġsuc cess
a f
Ð ¾
Ù Ĥ
in ed
Ġb ar
à¤ ¸
ers ian
au ti
Ġplay er
Ġany thing
Ġdise ase
ĠGal ician
n a
n ect
ti ce
ar ing
ro gen
um e
Ġà ¬
ĠTh at
Ġus es
ord an
A S
Ġg ames
od e
pl es
Ġsp ace
Ġ201 2
Ġcurr ent
Ġcontro l
b ine
o e
w ood
Ð °
Ġa vailable
Ġl og
ĠH er
Ġmo d
ĠF igure
app oint
Ġag ree
Ġtyp es
S e
Ġs am
Ġd est
Ġst ars
th ough
ask et
Ġform er
Ġinst ead
1 8
m ing
in o
ar ies
Ġl ost
Ġtr ip
ãģ ¨
à¦ ¿
Ġsw im
Ġ vers
Ġc up
as tic
Ġso cial
Ġac ross
Ġoff ic
ĠMay be
d irect
o ke
ou d
ce mber
Ġwh ite
ĠO r
led ge
Ġcent ury
Ġinte gers
ĠCamer on
2 5
l ished
t r
Ġp ur
iv id
ĠW ar
ĠS chool
Ġse ll
Ġam er
Ġeas y
Ø ²
re et
Ġm i
ĠG e
ĠD V
Ġdo ctor
ain ed
end all
Ġmus cles
ĠTr ans
Ġgre ater
Ġoccur s
Ġgluc ose
) ?
Ġw all
Ġb reat
à¤ ¹
ch n
Ġde ep
Ġlist en
à¦ ¨
Ġneed s
Ġconsid ered
augh ter
Ġmater ial
Ġparticip ants
I t
o f
p or
u ff
Ġa ge
ot e
id ing
Ġv i
ub rey
Ġsur v
res p
Ġask ed
__ _
bre w
. ".
O T
Ġh or
ĠS outh
ĠB udd
ai ley
ĠHow ever
Ġinclud e
Ġlet ter
Ġorganism s
Ġinterest ing
' d
A T
b or
b ed
t t
Ø ´
Ġn or
ag ed
Ġme mber
ash a
f ort
y n
ĠG ree
ch oice
Ġpl ays
à° ¨
Ġgr and
Ġfl ow
ĠWor ld
i als
Ġ âĢ
Ġs outh
Ġf ast
Ġh air
Ġon ce
ĠP r
Ġal most
Ġbu ilt
Ġwrit ing
inn er
Ġocc up
Ġhappen ed
Ġrece ived
Ġgovern ment
Ġfre qu
ĠRob in
1 1
h old
Ġe t
ĠP h
Ġfo ss
ĠHe brew
Ø§ Ø±
ars on
ãĢ Ĥ
Ġmag ma
ĠPe ople
i ans
z e
is tic
Ġl ength
à± ģ
Ġloc al
Ġfoss il
g es
Ġf ire
Ġp ay
Ġm ach
Ġbe gan
Ġcon nect
un k
à° °
!! !!
Ġext ra
Ġvide o
ĠDV D
c il
c ause
Ġ âĺħ
Ġ âĺħâĺħ
ĠH indi
Ġ( âĺħ
Ġk id
ĠJ ordan
Ġso ld
Ġcl im
Ġdi alog
âĺħâĺħ âĺħ
ĠPer turbation
Ġâĺħ -
Ġâĺħâĺħ âĺħâĺħâĺħ
l o
Ġs ix
Ġb asket
ur al
ul f
Ġme et
el s
Ġstud ent
Ġind ivid
Ġcaus ed
ĠQu inn
× Ķ
in ation
Ġto wards
Ġre du
Ġsu gar
op h
Ġk il
ab et
Ġcor resp
ĠK ing
ĠK endall
Ġwant s
à« Ģ
Ġlar gest
Op tions
Ġcorresp ond
Ø ©
Ġm outh
Ġto ld
ĠA ubrey
ut ri
ĠS yd
ĠE m
ĠJ im
ãģ ª
Ġpr on
av id
Ġà¤ ®
à° ²
br uary
ĠFact s
ĠForm ulate
i j
Ġt ree
at ory
at ors
or ge
am a
ĠB ailey
ore d
." ?
Ġdr ink
Ġinter n
Ġlong er
Ġrep rodu
l er
l ike
p ly
Ġd one
ro s
ĠC arson
ĠJ ack
ak en
Ġknow ledge
Ġinc or
auti ful
ĠSyd ney
- -
Ġn orth
Ġre ach
et er
ound s
ãģ ¦
Ġpos si
Ġà¤ ª
ãĤ Ĵ
à¯ ģ
Ġthir d
1 3
a im
Ġan ti
Ġf arm
ri ble
ab el
Ġdis c
Ġliv er
Ġgrow th
Ġindirect ly
f ect
Ġf at
ĠP ersian
ff ee
Ġsc ale
Ġ[ '
Ġext racted
Ġbeh ind
1 7
S entence
m s
Ġ ill
ĠW ith
ĠS asha
ĠF INAL
Ġchem ical
ĠGerm an
Se lect
6 0
Ġs leep
Ġm ix
Ġe p
ĠP res
ĠØ ª
Ġapp ro
Ġelectric ity
Th is
Ġpron oun
Ġs we
ed s
am s
um b
av en
Ġwork ed
ry st
Ġag o
Ġorig in
Ġrepl ace
Ġstar ts
& #
Ð µ
ĠS te
Ġlo ved
Ġpie ce
Ġlos s
con om
Ġmole c
l ate
Ġa ver
Ġche ck
Ġelect r
Ġent ers
acter ia
v ision
w ith
Ġs and
at a
Ġc reat
ĠW ill
ĠW rite
Ġà¤ ¹
Ġmill ion
w here
Ð ¸
in ks
Ġre present
um in
rough t
Ġ201 0
Ġhy d
Ġinte ger
ĠCom bine
Ġappe ar
ĠBrit ish
Ġt reat
Ġb it
ap s
Ġfl u
Ġ5 0
à® ķ
ĠSt ate
ĠDe finitely
ull y
n ame
u an
Ġf ung
Ġd ue
Ġh it
Ġmo ved
end er
Ġex ist
pl ay
Ġfl oor
Ġtrave l
cell ent
Ġquick ly
y le
Ġc ertain
ut ral
ay lor
ĠH int
Ġ2 4
pe cially
ak er
Ġcont ent
Ġdis appoint
Ġlar ger
Ġhum ans
Ġsing er
Ġfur ther
j e
Ġb or
Ġm om
ar a
Ġis s
Ġpro m
ĠD an
ke y
Ġcom ment
ãģ Į
atur es
Ġmil es
Ġsport s
o on
Ġt aking
Ġw ave
Ġo il
ues e
ĠS m
Ġfor est
ĠG ood
Ġcom b
ĠF ar
Ġreg ion
Ġbus iness
vo id
Ġ Ã
in ter
an ks
ĠC ase
ie l
Ġme ans
Ġfl ower
Ġliv es
Ġpop ular
] ,
i que
Ù ģ
Ġst om
Ġit self
ĠB r
Ġk ids
Ġfe wer
sel ves
ĠUn iversity
t a
Ġp ort
Ġn amed
ap e
Ġse en
Ġal ph
pe ctive
à¥ ģ
àª Ĥ
Ġ200 6
Ġser vice
Ġadd ition
Ġrest aur
Ġvis it
Ġcorrespond ing
v ent
Ġb ott
al es
ĠC ity
ãĤ ĭ
ĠÙ Ĩ
ons ense
bo ard
z a
es tern
Ġs ister
Ġb atter
it ar
Ġh ur
ĠE very
Ġpr im
Ġco ffee
Ġph one
pr il
Ġtry ing
Ġmulti ple
Ġfree z
Ġearth qu
OR E
Ġassoci ated
4 5
d ate
l f
Ġf it
Ġf em
it ary
ar ch
ĠT e
Ġbe autiful
Ġst ream
Ġte chn
Ġex ch
Ġover all
osp ital
Ġhist ory
ĠCount y
Ġamer ican
Ġpossi bly
ĠCase y
O PT
b ur
Ġo pp
Ġn orm
Ġr iver
Ġcon cer
ĠM ost
Ġne igh
Ġcan cer
Ġbl ue
à® ¿
Ġbab y
ĠBudd h
Ġaver age
1 2
N A
h ouse
Ġg ases
Ġn utri
om p
Ġ1 00
Ġv es
àª ®
Ġcount y
Ġbre ad
Ġpartic ular
ĠPortug uese
Ġwr ong
Ġet c
Ġs now
Ġd aughter
Ġh arm
Ġli qu
ile y
Ġpol ice
Ġtrave ls
Ġoccup ation
a ul
á »
er al
st ream
ĠS ep
Ġr u
ĠH igh
Ġse em
us ion
Ġhow ever
Ġinvol ving
w ater
Ġs tic
at i
Ġc ake
Ġe yes
ĠC omm
Ġle ave
ĠJ ames
Ġres ear
à´ ¾
Ġstr uct
Ġreturn ed
Ġlearn ed
Ġes pecially
Ġbeg ins
Ġcre ated
ĠGre en
Ġincor rect
3 5
I ON
a id
a ff
h am
Ġc amp
an c
it c
ve oli
ĠB ob
Ġmo v
Ġmo der
Ġmo ving
Ġj o
end ed
ãģ Ļ
Ġen tity
ond on
Ġ201 3
Ġ201 4
Ġrem o
Ġdecre ases
Ġint rodu
Ġreac tion
Ġrad iation
3 9
u ous
Ġ ;
Ġs cre
re l
Ġb ag
Ġe conom
Ġy et
ĠC o
ĠH um
Ġtr ad
Ġdo ll
ĠE n
Ġme as
uc le
ĠRe my
Ġsome times
Ġcomm onsense
Ġbeg inning
read y
Ġmolec ules
I S
d d
d e
Ġ âĢĵ
Ġh ost
ĠS w
Ġde m
Ġch air
ĠCh ris
aph r
ĠĠĠĠ ĠĠ
à¨ °
Ġclass es
Ġdif fic
Ġact or
Ġinclud es
Ġrun ning
Ġterm s
ĠBl ack
Ġgif t
c us
f e
p g
Ġ view
Ġs n
Ġf aster
al i
Ġy e
ĠS c
Ġhe ld
ĠJ e
ĠJ esse
ĠCh rist
à´ ¨
ĠAmer ica
Ch oose
Ġconver t
Ġactiv ity
Ġmark et
Ġphys ical
Ñ Ĥ
Ġ #
Ġa w
Ġw omen
Ġb i
um ents
ĠM ORE
Ġal ready
ĠK ai
Ġgener ic
Ġthem selves
Ġbir ds
ult ure
Ġ200 9
Ġcol or
Ġbeg in
ĠTH E
ĠTrans late
Ġmov ies
p ing
Ġt aken
it ation
Ġm ess
ar r
Ġis n
ĠK e
Ġke pt
Ġbr ain
Ġrem ove
Ġfavor ite
Ø³ Øª
ES S
Ġs ens
ti an
Ġm id
se ct
Ġal igned
Ġbut ter
em ber
Ġany one
Ġ200 8
ĠTr acy
Ġshow s
Ġsun light
Ġcare er
ĠAust ral
Ġprev ious
Ġdialog ue
f ric
v ant
Ù ĥ
Ġ ).
Ġf ine
Ġm at
Ġre port
ĠC al
ĠY ork
Ġimp ro
5 0
d om
r ound
re me
Ġm ind
Ġm atch
Ġd ou
et y
ĠN or
ĠØ ³
Ġgr ad
à´ ķ
Ġdes k
Ġcons ist
Ġbasket ball
A vailable
E D
f ully
en ced
Ġp aper
à¤ ª
ĠM in
ĠN OT
Ġk ill
el t
Ġdescrib es
Ġwatch ing
Ġpack age
2 1
C on
Ġt al
Ġt all
Ġc oun
Ġl ake
ĠW ind
ĠS un
ac tion
ĠB ill
à¥ ¤
àª ¤
Ġ201 1
Ġcap tion
Ġcurr ently
Ġbas ic
rip tion
- ]
H e
f act
o x
v al
Ġw ife
Ġf ly
ĠT aylor
ĠA ugust
st ar
ĠM any
Ġtr ain
ĠE l
Ġco ll
à¨ ¿
sel s
Ġhim self
Ġcent er
Ġlet ters
Ġpie ces
Ġrespon se
? ?
b orn
× ¨
Ġ /
Ġf ight
Ġg ives
st ant
Ġst ren
ĠD r
ĠN ational
ĠL i
ab les
cre t
Ġlangu ages
Ġ200 7
m as
y pe
Ġ ut
Ġs ick
ic y
Ġhe ar
Ġal veoli
ãģ ĭ
Ġrec y
Ġ4 0
Ġbirth day
ãĥ ¼
Ġevery thing
Ġchem ic
Ġest ab
Ġexch ange
8 5
et h
Ġtr ied
Ġj an
Ġso on
ep end
à¥ Ī
Ġplace hold
Ġsp ent
ĠBe cause
Ġvar ious
Ġrestaur ant
I V
b and
Ä ģ
Ú ¯
Ġh ab
ent al
se t
se qu
ĠS pe
ĠF e
Ġres ist
Ø§ ÙĦ
Ġ× Ķ
Ġbig ger
Ġmater ials
ĠAust in
Ġsum mer
Ġstren g
t ar
Ġa ff
Ġb acteria
Ġg ard
ĠA c
Ġe ye
ĠC ent
ation ale
ĠM an
ĠR ed
ĠR iley
Ġal umin
Ġwe bs
à° Ĥ
Ġadd ed
Ġsour ce
Ġdiffic ult
u k
Ġc e
Ġin str
Ġd ark
Ġh ate
Ġr ationale
os s
Ġmo ves
Ġ2 7
ĠO h
Ġk m
Ġso ft
Ġun it
Ġro ad
ra ft
Ġdi re
iss ion
Ġeas ily
Ġpurch ased
Ġtele vision
+ ]
p s
p ro
er g
re g
Ġw ide
Ġc ross
Ġp ri
as c
Ġn ucle
ĠW ell
Ġr ound
ĠM ike
pl oy
ĠÙ ĩ
Ġthrough out
àµ ģ
Ġhelp s
Ġloc ation
Ġver b
Ġfun ction
Ġfin ish
Ġexp and
Ġwond er
Ġdam age
Ġmoder n
6 5
> .
f or
z one
Å Ĥ
Ġc ri
it ch
Ġst ation
Ġ" ___
Ġfo re
à¤ ¦
ap t
ĠL ESS
Ġdis co
Ġsy nt
âĢ Ķ
Ġobject s
Ġperform ing
yl ar
àŃ į
Ġsym b
Ġprofession al
Ġmach ine
W h
Ġt en
Ġo w
Ġf an
Ġm ic
Ġg ar
ĠD avid
Ġv ac
Ġà ²
Ġdescrib ed
Ġlay er
ï¼ ļ
ĠFar si
T ail
Ġf ill
Ġg ene
Ġl unch
ĠC he
Ġst age
ĠWh ite
ĠO xygen
Ġex c
Ġle ague
ĠL abel
Ġper fect
Ġad ult
Ġincre ased
ĠPerson Z
Ġbo il
à© Ģ
Ġnational ity
Ġequ ival
ĠOther s
Ġfuel s
Ġindivid ual
Ġfem ale
Ġplacehold er
Ġ"___ ",
u ed
Ĳ ×
in ing
en a
Ġp or
Ġd ry
id ge
ad d
Ġr a
Ġde ad
ĠWh ile
ĠE d
Ġsh own
Ġac tive
àª ²
Ġro ots
Ġfil ter
Ġperson al
ÙĨ Ø¯
res h
Ġdevelop ed
uss ian
Ġfer til
ĠSk ylar
Ġsubst ance
Ġvers ion
Ġremo ved
Ġt our
in y
Ġc and
Ġn oun
Ġon es
ĠB ar
ĠB rown
Ġse lf
ass es
ob al
Ġcar ry
Ġcould n
Ġprov ides
Ġact ually
Ġturn ed
ĠInd icate
Ġgu itar
Ġdevelop ment
Ġve get
ĠEx pl
Ġsam ple
Ġequival ent
j ar
v a
on ym
Ġw at
Ġf ace
Ġb ank
le ction
os is
ĠO ctober
Ġk ne
ĠJ uly
Ġun ited
Ġres ults
à´ ¤
Ġdes ign
Ġnum er
Ġqu ite
Ġexperi ence
Ġpoli tic
Ġliqu id
2 3
m ar
á Ł
Ġ ir
Ġc ities
Ġb ill
Ġh ope
ĠI I
om a
Ġit em
il le
à´ ¯
land s
à« ĭ
Ġfeel ing
tim e
ĠInd ia
Ġpan cre
Ġpat ient
2 00
4 0
Ø ¬
ä ¸
Ġs il
Ġc ou
Ġf a
Ġd ied
ad ian
ĠP re
ac ing
ĠH ar
if orn
Ġk ing
Ġle d
ĠJ ust
ĠL ondon
ten tion
ip s
Ġknow ing
Ġjud ge
ĠMo vie
Ġchemic als
iforn ia
A N
O U
Ġs qu
Ġc ub
Ġc ryst
Ġf elt
Ġd inner
Ġre pe
id a
Ġpl ate
Ġpl aces
Ġch urch
Ġj uly
ĠJ une
ack ets
Ġtw ice
od es
Ġfe et
Ġsp end
Ġpre c
Ġsur round
ulf ur
6 3
6 7
R E
T itle
m ed
r u
is ing
an ch
Ġp us
Ġm ale
ro y
id ay
ag o
Ġde al
Ġde but
Ġse man
Ġ2 3
Ġ2 8
un t
àª ¯
Ġun ique
Ġper cent
ĠU se
enti fic
Ġdirect or
Ġgen re
Ġbott om
Ġves sels
itc hen
Ġjan uary
2 8
l led
v olution
w rit
z y
al d
Ġfor ces
ĠM iddle
Ġde v
Ġtr ay
Ġdo or
ang er
Ġlist s
Ġres our
Ø§ ÛĮ
Ġind ic
Ġmet al
ĠPar agraph
Ġste am
Ġris k
Ġpict ure
Ġalph ab
Ġc amer
Ġf ut
Ġis ot
Ġh ospital
ĠG o
Ġhe avy
ĠIn tern
ĠJ ew
Ġwrit er
àª ķ
à´ °
Ġsur pr
br ary
ĠMr s
Ġadv ant
Ġslow ly
Ġenti re
sect s
S he
g ment
h ic
Ġp ath
Ġin du
Ġbe ach
il i
à¤ Ĺ
Ġr ace
ĠR oman
Ġtr apped
Ġch amp
Ġ2 2
Ġex act
àª ¿
Ġro le
Ġim pl
Ġpre mise
ĠV ery
Ġ200 5
Ġrel ation
Ġbro ken
Ġevent ually
Ġmil k
ĠCar bon
Ġstand ard
j pg
o ot
er als
Ġs ad
ĠD ist
ul in
ĠN ove
and er
ãģ ¾
àª µ
ĠCh ar
ĠØ ±
Ġen c
ci ent
ĠEng land
à® ¤
Ġpre y
!! !
Ġcap ital
Ġmil itary
Ġcre ate
Ġprobab ly
ĠExpl ain
7 5
p ed
ä º
ŀ ×
as te
Ġd ro
ĠA fric
Ġst yle
ĠM ag
te en
ĠE ach
Ġat tem
ĠIn s
Ġgo al
Ġdi abet
Ġsystem s
à¬ ¾
Ġend ing
Ġgrow s
ĠCom p
Ġdiabet es
f ast
f ield
Ġ ing
re es
Ġo mit
Ġp ump
Ġh ints
iv il
ut h
ĠS und
ĠM on
Ġro ll
Ġass ist
Ġadv ice
Ã³ n
ĠHum an
2 9
re w
Ġo x
an es
Ġm er
Ġm ot
ed y
Ġst reet
ĠD ay
Ġtr ack
Ġse ems
ĠQuestion s
Ġj une
ĠØ Į
struc tion
Ġph il
Ġqu iz
Ġblood stream
Ġevery one
Ġlik ed
Ġsci entific
cu tive
Ġide a
ĠGu jar
Ġplaus ible
Con text
Ġgard en
Ġalumin um
Ġpancre as
" )
g ed
i ents
o ser
Ġt ick
Ġt iss
er ve
es p
Ġs ets
ou thern
ĠT im
ch an
Ġcon stant
os y
Ġde cl
ĠF il
Ġte ach
Ġk itchen
Ġex cellent
Ġprodu ces
ĠØ ¹
Ġ200 4
Ġinst ances
ĠAn n
ĠBl ood
Ġresp ir
Ġsol id
ĠSep tember
b l
i Ä
x im
er o
er v
Ġs ort
Ġf air
Ġh ands
Ġe ating
ĠG od
à¤ §
Ġsu ff
Ġat oms
Ġk n
Ġ19 0
Ġgr amm
Ġev apor
Ġpre t
Ġpres ident
Ġmount ain
Ġrelig ion
Ð¾ Ð
Ġvi ol
Ġneigh bor
E N
k l
Ġt ax
Ġf resh
it es
Ġh on
ro te
ad es
Ġr ich
ĠM e
ĠD uring
Ġcomm a
fer ence
Ġ200 0
Ġear l
Ġbelong s
Ġorgan ic
Ġturn s
Ġtyp o
Ġprote ct
Ġrad io
Ġsci ence
Ġbase ball
ĠGe orge
Ġstic k
4 7
a o
u fact
v in
Ø Ń
ľ ×
Ġm amm
Ġl ack
ĠA ng
am b
Ġr ather
ĠL et
ĠØ £
Ġup on
pt y
Ġbr on
Ġ6 0
Ġfam ous
Ġext reme
Ġact ress
ib ility
Ġreg ard
Ġcond itions
min ist
Ġdisappoint ed
ION S
Ġpolitic ian
4 3
c ome
i ers
i us
Ġs ac
ou ds
Ġd ish
ol ic
Ġhe m
Ġdo c
Ġcl aim
Ġinput s
Ġmet h
Ġrequ ire
Ġprac tice
Ġisot ope
ĠNove mber
I f
r an
à »
Ġb ow
Ġp le
it ing
ĠA b
id er
Ġst uff
Ġfo cus
ĠG l
Ġv ia
ãģ £
pl it
Ġgr ass
ne ys
Ġfl at
à® °
ÛĮ ÙĨ
Ġchang ed
Ġrem ains
Ġliv ed
Ġeven ing
Ġfr ont
Ġmar ch
Ġmove ment
IN G
Ġve hic
Ġreac tions
Ġeng ine
Ġbeh av
Ġcour t
Ġprobab ility
M AS
c tic
g ing
m ark
Ø ®
Ġt ou
Ġa ugust
Ġo ctober
ar ily
Ġh us
ĠB y
ĠH ouse
est s
Ġcom ing
ĠF rom
Ġpr iv
Ġfe ature
Ġcol on
Ġbr ing
Ġlook s
Ġdirect ed
à© ĩ
enn is
Ġang ry
I L
n s
q ues
r ay
s c
w as
Ġp ages
ag er
ag on
ch ie
Ġse ven
ĠK ore
Ġres pective
ord s
ãĤ Į
Ġbr ackets
Ġche ap
az ing
Ġwee ks
Ġpub lished
Ġbreak fast
Ġexperi enced
Ġtalk ing
Ġshop ping
Ġswim ming
Ġclim ate
Ġnorm al
! "
at t
Ġf if
or ry
ĠS am
à¤ ļ
Ġr ange
ĠE ast
Ġme chan
oun ts
str uct
ub lic
Ġcontain er
ĠAl so
ĠInd ian
ĠSe lect
Ġdist rict
Ġhot el
Ġhealth y
Ġfall s
Ġcour se
Ġep is
Ġfung i
Ġ×Ķ ×
MAS K
4 9
n ed
r or
r ig
v an
is es
Ġb ene
Ġon line
ir t
Ġst at
Ġr ating
Ġpl aced
ĠM ich
Ġcom pe
Ġch lor
Ġv oice
Ġal though
ĠE ven
Ġ2 6
ĠO ver
Ġ19 3
Ġac cept
Ġspe ed
à¸ Ļ
Ġman ufact
Ġlook ed
ãĥ ³
Ġser ved
Ġser ious
Ġcent ral
Ġmed ic
Ġprote ins
Ġhist or
Ġcir cu
Ġenti ties
Ġvolcan o
Ġstom ach
Ġfut ure
o oth
p ire
Ã ¶
at tle
Ġb rought
Ġp H
Ġh ol
ac hes
ĠB ir
ĠG ive
Ġcon cept
Ġwas n
Ġde g
Ġj e
Ġwe ak
Ġfilm s
à¸ ²
ĠDe cember
Ġdr ug
Ġcap t
Ġlot s
Ġrun s
Ġselect ed
wh ich
Ġprogr am
ij ing
Ġflower s
ĠBuddh ism
ĠDist rict
ĠGujar ati
6 9
8 9
b ook
b les
k a
m ary
o ff
w w
Ġ @
Ġt ub
Ġo zone
ou is
Ġto m
ar i
Ġh op
Ġh orm
ĠA re
Ġre ti
ut ed
Ġy ork
Ġv apor
Ġprodu ction
Ġà¤ ħ
og ue
Ġval ues
Ġfootball er
Ġdise ases
ĠAustral ia
. [
C E
s ing
z ym
Ġ ess
Ġ rom
as ts
Ġin sects
ĠĠ Ċ
Ġe ats
id ence
Ġare as
Ġr an
Ġtrans fer
od s
Ġfe bruary
Ø§ Ø¯
Ġpass es
Ġdr ess
Ġem pty
ĠBe ijing
Ġlearn ing
Ġdiss ol
ĠØ¨ Ùĩ
ĠChrist mas
Ġsynt ac
Ġcamer a
Ġpret ty
Ġhus band
8 0
I M
e c
f riend
n ic
p ir
u tions
Ñ Ģ
at o
Ġb al
it rogen
Ġd rop
ĠT od
ot ype
ĠS atur
ain t
op hy
ĠRe p
Ġgo ld
Ġgo als
Ġgr av
Ġold er
Ġbo ard
Ġorder ed
ĠFr ance
Ġdiv ision
Ġsymb ol
Ġindu st
Ġexact ly
Ġsyntac tically
W hy
w are
Â °
Ġf t
Ġp un
al y
Ġh ar
Ġn a
Ġn ature
ĠA void
Ġhe ated
ĠE ner
Ġ2 9
oc r
Ġà¤ ¨
Ġgener ally
cl ub
Ġread y
à¨ ¨
ĠÙ ģ
ĠÙ Ħ
Ġgroup s
Ġlit er
Ġint est
Ġatt ack
Ġdist ance
ĠPar is
f ord
u it
Ø µ
Ġc ore
Ġb ike
Ġp ers
Ġp aid
Ġde fin
ist ry
Ġ. ..
à´ Ł
ra w
hing ton
ĠAs s
Ġdiffer ence
à¬ °
Ġgl obal
Ġent er
Ġsign ific
Ġenjoy ed
Ġrefer ence
Ġcommun ity
1 4
7 0
c ase
Ġw ish
Ġf ac
Ġg iving
ent y
Ġst ories
us ed
à° ¯
à¦ ²
iz es
à¨ ¤
Ġchar ge
Ġhome work
ĠJan uary
cap e
Ġdra ft
ĠØ¯ Ø±
Ġarg ument
ĠGree k
writ er
Ġresour ces
Ġmot or
ĠEner gy
9 9
L E
s p
Ġw rote
Ġp u
Ġin j
Ġto y
Ġth r
ic it
ser v
st er
ĠB en
Ġpro ject
Ġj ohn
Ġsp read
à« ģ
Ġstate ments
Ġmin erals
Ġabsor b
Ġdra w
Ġcomplete ly
Ġclear ly
Ġdest roy
Ġpur p
Ġrecy cl
1 6
e ctive
Ġa pril
Ġs ch
Ġb ur
an j
Ġm ur
Ġd an
Ġth ick
Ġh all
Ġl y
Ġn ative
ad em
Ġas ks
ĠD is
Ġne cess
Ġtr ou
Ġse p
Ġal tern
ĠHe ll
Ġen zym
à° ¤
à° ķ
Ġmost ly
Ġapp l
Ġrem aining
pic ally
Ġgrow ing
Ġacid s
Ġrequ ired
Ġvol ume
Ġgir ls
Ġactiv ities
ĠPres ident
Ġelectr ons
ĠState ment
Ġhab it
Ġcryst als
a el
b ack
h ood
l in
Ġw est
Ġc d
Ġf igure
ed i
ed ish
st e
ĠS u
ĠS im
Ġor g
ĠB et
il es
Ġ( "
Ġ2 1
Ġsh ip
tic ed
Ġ. "
Ġcar ried
Ġ201 5
Ġcontin ue
Ġjud gment
ipp ed
à³ į
Ġcir c
ĠEurope an
Ġplaus ibility
Ġseman tically
Ġadvant age
Ġox ides
8 8
N D
c oh
c ont
© ×
Ġl ose
ent ed
ĠP art
ĠM ad
Ġde cember
ĠR o
ĠR ober
Ġv oc
ĠRe c
Ġso ci
Ġcl othes
à¥ Ĥ
Ø§ Ùħ
Ġrel ative
Ġclass room
Ġhigh ly
Ġelect ron
Ġ8 0
Ġcolle ction
no on
Ġstudy ing
Ġburn ing
Ġseason s
Ġallow s
Ġgreen house
Ġbor ing
Ġscre en
b ody
e led
Ð ½
Ø ·
à ·
Ġt ired
Ġt ennis
er n
in ated
Ġd omin
Ġth row
Ġl ines
ut ch
ly m
Ġu nd
ver se
Ġcon cent
ĠM ark
ĠR iver
Ġj u
Ġcomp et
Ġà¤ µ
Ġcont rib
Ġcont rad
Ġpass ed
à® Ł
Ġpre fer
Ġind epend
Ġcap s
ĠCan ada
Ġfin ally
Ġcou ple
Ġmamm als
Ġcircu it
7 7
c ur
r ap
y a
Ġ x
Ġ iron
ar get
ig an
os ition
Ġch ain
Ġse cret
ĠL ike
Ġli brary
orm s
ĠK ate
Ġeduc ation
Ġincre asing
Ġdr ive
Ġem ploy
ÙĪ Ø±
Ġgl ass
Ġsit ting
ions hip
Ġmed ical
Ġris es
Ġpen cil
Ġpict ures
Ġsour ces
year s
Ġsurv ive
Ġpronoun s
Ġtrad ition
Ġdoll ars
Ġkne w
Ġsep tember
i ant
m on
t es
Ġa ust
er ry
Ġh at
Ġn et
Ġanswer ed
Ġat om
ĠF ood
Ġcl ouds
oc ks
Ġà¤ ¦
Ġà¤ ¬
Ġà¤ ľ
Ġfe ed
à¦ ¤
à¦ ¯
og raph
Ġad minist
Ġdis hes
Ġdis play
Ġform at
à® ª
Ġuse ful
à¥ĩ à¤Ĥ
Ġreg ular
Ġfun ny
ness es
iet y
Ġpoli tical
"" ""
Ġplan et
Ġdoc ument
d o
i ber
n am
Ġl ands
Ġyou th
ver t
Ġr ank
os ion
Ġse lection
ĠJ enn
Ġno se
ĠØ ´
Ġafter noon
ĠV al
à¸ Ń
Ġem b
à¬ ¿
Ġcr acks
Ġent ertain
augh t
Ġfull name
Ġlay ers
Ġboy s
Ġter rible
ĠSund ay
O n
k y
l an
v i
as ion
Ġm ath
Ġd ream
ic ally
ĠP aul
im als
Ġr ates
Ġpl at
ĠM ore
ĠD NA
app y
Ġinter ested
ĠAn y
Ġlo ves
Ġsim ply
Ġinclud ed
Pro cess
×Ļ× Ŀ
Ġkil led
Ġresear ch
Ġwonder ful
5 5
p ick
Ġ ions
ĳ ×
Ġt ro
Ġb ot
ro g
ic ation
ĠA pp
Ġe th
ot es
à¤ ¶
Ġch rom
Ġal coh
ĠF irst
Ġj our
ãģ Ĩ
ere otype
og en
Ġshe l
Ġrec ent
Ġcar s
Ġsm ooth
Ġstr ing
Ġhelp ed
Ġ198 0
Ġsci ent
Ġnews p
Ġstreng th
Ġdisco ver
Ġow l
Ġattem pt
Ġphil os
Ġextreme ly
8 3
g a
Ú Ĩ
Ġa chie
er t
Ġs ulfur
Ġm is
ĠM al
est one
Ġcom fort
Ġex h
ab ility
Ġso cc
ber t
à¦ ¬
Ġres pect
ric tion
Ġsub sequ
Ġschool s
olog ical
Ġsepar ate
Ġmain tain
Ġperform ance
Ġabsor bed
Ġsex ual
Ġfrequ ency
kl ah
Ġsocc er
Ñ ģ
å ½
he ad
Ġc ast
Ġc ivil
Ġd ance
Ġth reat
ic o
ic ago
ĠI m
Ġe mer
ĠW H
ĠP at
ac tive
ĠH y
Ġcon duct
Ġmo ld
Ġam b
Ġbl ock
Ġdes igned
Ġpre p
Ġeffect s
Ġsmall est
ph one
à± ĭ
Ġunderstand ing
Ġref lect
Ġstore d
Ġpick ed
ĠFr ank
Ġrecord s
Ġann oun
Ġemotion al
Ġintern ational
ĠWill iam
ĠSm ith
Ġnutri ents
N ot
O O
Ġ ur
en c
Ġin ner
Ġd er
ĠT ony
Ġre act
se e
se m
Ġfor ward
Ġr ap
ch i
Ġse eds
Ġop in
à¦ ķ
Ġsp ouse
ãĤ ī
Ġ200 3
Ġrel ax
Ġty pically
Ġdesc ription
ĠAs ia
ÙĪ Ø¯
Ġsim pl
atic ally
Ġlab eled
ific ation
Ġfin ished
ii i
II I
Ġarr ived
Ġcy cle
Ġdel iver
Ġappro xim
Ġce le
was her
Ġsignific ant
Ġpurp ose
H ere
c her
w est
Ġs end
Ġo k
an ced
Ġp et
Ġg un
Ġn ar
ĠI T
ĠI ts
am il
à¤ £
Ġr en
ol ar
ch oices
os ite
Ġmo tion
ul a
Ġcan s
Ġpar aphr
ĠJ oe
ĠL uc
ak s
Ġcl osed
ĠØ ®
Ġev olution
Ġag ent
âĢ Į
Ġcons um
Ġdec ay
Ġlong est
Ġrem ember
ial ogue
Ġfam il
Ġ18 9
Ġcap ill
Ġlead s
Ġ197 0
ok ing
Ġprote in
Ġeng land
Ġmount ains
Ġcollect ed
à¸² à¸
Ġintest ine
2 4
z o
ä ½
Ġa f
Ġa ud
at in
Ġw estern
Ġb ath
ing u
Ġm or
Ġn g
om ing
ĠC r
Ġor d
Ġpro t
Ġr ivers
ĠH el
ĠY ear
te br
Ġch ance
igh ter
ri pt
og n
Ġ3 5
Ġrec ently
Ġinf e
Ġkeep ing
Ch oices
Ġ) :
cap ital
Ġrefer red
Ġpot ential
inc ip
Ġvirus es
Ġearthqu ake
Ġgene tic
S T
o ver
s y
z en
Ġa qu
es ome
Ġw in
Ġc ases
Ġf iction
Ġp i
Ġp al
ro at
Ġe c
ot a
ĠW as
Ġr ub
Ġcon se
um n
ĠM ed
ĠM us
Ġal one
ĠF in
Ġex ha
Ġle ver
ine tic
Ġno ve
Ġro ot
Ġoff ensive
art ment
ai ly
Ġind icate
Ġmus cle
Ġcontain ing
Ġ6 5
ĠUn ion
ĠAl though
à² ¿
Ġ199 7
Ġresp ond
ĠGener ated
Ġvis ited
Ġclub s
ĠCol le
Ġmod el
Ġkid neys
OPT IONS
ĠChris tian
Ġwebs ite
Ġearl ier
ĠSatur day
8 7
W hen
g l
g in
t op
Ù ī
Ġ |
on ic
Ġs olution
ti tion
ĠB ro
ĠM iss
Ġwor se
ĠO f
Ġk inetic
ĠL ook
ãģ ĵ
Ġcomp l
Ġcomp le
ĠØ ¢
Ġfe atures
à° ¦
à´ ±
Ġsupp ly
ell s
Ġdi et
à® ¾
Ġapp les
Ġfound ed
Ġcal c
Ġorgan ization
Ġrele ases
Ġbelie f
à¹ Ī
Ġrelig ious
ĠPh il
Ġye llow
klah oma
Ġcele br
a is
u ge
Å ¼
Ġa ward
en ger
is p
at ives
Ġw inter
Ġc ab
Ġf ant
Ġf und
Ġp ull
it a
it or
Ġd u
Ġg ain
om as
à¤ Ł
Ġhe ating
te am
Ġtr uck
Ġse ction
un ately
ind er
Ġam azing
ĠU K
ĠĠĠĠ ĠĠĠĠ
à¨ ¸
à® ©
Ġapp lic
Ġcol ors
Ġrele vant
Ġshow ed
cep tion
Ġteam s
ĠÙħ ÛĮ
Ġcomput ers
×ķ× ª
Ġball s
Ġbrother s
Ġreprodu ce
Ġearthqu akes
Ġstruct ure
ĠWind ows
ĠFe bruary
Ġsac s
Ġrespective ly
Ġsoci ety
B e
b it
f ly
k now
w ell
Ġb od
an cial
or row
as y
Ġto ol
Ġd ata
ll ing
Ġl augh
ĠC or
ate ll
ĠB ad
à¤ ľ
ĠR et
Ġch ick
ĠF l
Ġsh oes
ĠL a
Ġar ter
ang es
ĠRe g
àª ¸
à´ Ĥ
tit ute
Ġfl ows
Ġco ast
Ġcomm er
hes is
ãĤ Ĥ
Ġdr inks
ĠCan adian
Ġnear ly
Ġsum mary
Ġdog s
Ġprev ent
Ġpurch ase
Ġmix ed
Ġintrodu ced
Ġestab lished
Ġresist ance
Ġmedic ine
Ġrecycl ing
Ġnove mber
6 1
[ -]
a ut
Ã ¤
Ġs ale
Ġw ays
Ġh ung
ro id
Ġl akes
se um
se par
ĠThe ir
ĠW est
ĠS er
ĠP eter
im um
ac hed
ĠB ur
Ġr ide
Ġr ise
ĠH ill
Ġcom edy
el ve
Ġwe ar
Ġcl ar
Ġno ticed
Ġà¤ Ĩ
Ġro b
à¦ ®
Ġcar ries
Ġbr anch
ism ic
Ġcommon ly
Ġsound s
ĠPl ants
Ġexpl an
Ġpain t
Ġisland s
Ġoffic ial
ĠGree ce
Ġhyd rogen
Ġmeas ure
ĠTod ay
Ġplat form
. )
9 5
I T
k er
r up
Ã ł
æ ľ
Ġ ign
Ġt arget
Ġs ave
re ci
Ġb ound
ti g
Ġg erm
ĠS et
ĠS and
ĠC ub
ad o
ad s
ĠP ark
ĠQ ue
ĠO utput
ian o
Ġsp ores
ub ject
ne tic
ord er
Ġstud ies
Ġag ric
ĠSt reet
Ġ200 2
Ġ199 9
Ġmain ly
ĠMar ch
Ġdep os
Ġinvol ved
ĠPortug ese
Ġimm une
Ġimm edi
ipp ing
Ġeff ort
Ġchamp ionship
Ġdish washer
Ġnecess ary
ĠRober t
i able
m o
m et
m ore
n ice
Ø °
å ®
Ġt iny
Ġs orry
Ġc atch
an cy
as a
Ġm ist
al ist
Ġg ro
Ġe ast
ir m
Ġst or
ĠP al
ig er
Ġwh ose
à¤ ¡
ol ina
Ġcon struction
Ġpl ates
Ġpl astic
ĠD es
ĠR es
all ow
Ġar m
oc ol
Ġup date
Ġad vert
Ø§ Øª
Ġins ulin
Ġfl ood
Ġdes ire
à§ ģ
Ġà¦ ķ
Ġset t
àª¾ àªĤ
Ġmed ia
uck y
Ġopen ed
Ġeng lish
Ġstop ped
Ġsubst ances
Ġwide ly
Ġassist ant
Ġapproxim ately
Ġfamil ies
A n
I s
P ossible
c ar
g ian
w an
Ġt un
es tic
is a
re ed
Ġc ult
Ġf riction
Ġb rit
Ġin iti
Ġd aily
ĠT el
Ġn itrogen
ĠA g
om b
Ġe ight
Ġy ard
Ġu l
ag ing
ĠH aven
os omes
ĠM ond
ĠD ialogue
ĠR ussian
ul ated
Ġch ap
ĠO cean
Ġpr incip
av a
Ġac cess
Ġcont ract
ĠK h
Ġsp ir
ĠIs land
Ġsc he
Ġàª ª
Ġacc ount
Ġsa fe
Ġtell s
à² ¾
Ġexam ples
Ġ199 4
Ġkeep s
Ġmar ried
ĠSome times
und red
Ġvar iety
Ġsediment ary
ĠÚ© Ùĩ
Ġcop per
Ġwall s
rel ated
Ġprec ip
i est
o ly
s k
t hen
v ille
Ġ â
is c
Ġs plit
Ġw a
Ġw al
Ġw ild
Ġc ream
Ġf ed
Ġb ones
Ġp ul
Ġh ole
ll a
Ġn one
om ers
ĠS ch
ĠS ince
ĠB ig
Ġpl ann
Ġme at
Ġso d
Ġpr ime
oc key
Ġà¤ °
Ġsp ot
ĠCon s
ĠAn imals
Ġgl ac
Ġpol ar
Ġpol icy
Ġgu y
Ġdevelop ing
Ġfin ancial
ĠFr iday
oint ed
Ġer osion
ĠGr oup
ĠGerm any
à¥ĭ à¤Ĥ
Ġspeak er
ãģĹ ãģŁ
Ġlim estone
Ġdisc uss
Ġelectr ical
ĠSw edish
ĠIntern et
IL AR
IM ILAR
Ġaust ral
ĠColle ge
O V
f it
u als
v is
Ø Į
Ġt urb
Ġs ite
Ġw et
Ġp iz
ing er
ic ient
Ġl ink
Ġor ange
ac he
Ġde b
Ġde vice
Ġse qu
Ġsh ore
ĠO ff
ab ly
Ġà¤ ¤
Ġro d
Ġplay ers
ãĤ Ĭ
à® ²
Ġmu seum
Ġtransport ed
Ġob tain
Ġ[ -
à± ĩ
ict or
ĠÙħ ÙĨ
Ġlim ited
Ġwait ing
fort unately
ãģ¦ ãģĦ
Ġbatter y
Ġfreez er
Ġrespir atory
Ġgrav ity
Ġtrou ble
Ġenzym es
Ġconse cutive
isp here
1 00
M y
p ill
an as
Ġp ig
Ġh undred
Ġg ender
ĠI S
à¤ ·
à¤ ı
os es
Ġex cept
Ġar my
pp ed
Ġtw elve
ild ren
ĠCh urch
Ġmy self
ous es
tit ude
ug u
Ġrec ogn
Ġhold s
Ġqu ery
Ġcons ists
ãĥ «
Ġret ains
Ġsl ower
ĠØ§ Ø²
rop ical
Ġmulti ply
Ġsol ar
bo x
Ġwalk ing
Ġmajor ity
Ġlog ical
Ġiss ues
Ġaddition al
Ġgrad u
Ġdire ction
Ġfore ign
Ġexc ited
Ġtiss ue
Ġdeg ree
Ġopin ion
ĠRet urn
separ ated
/ /
O S
P erson
h i
i os
i led
r ated
u a
Ġt it
Ġs outhern
ou l
as ure
Ġd anger
ĠT ry
ce l
ĠS um
ĠC O
im ents
ac tions
ap es
Ġpl ane
ĠM ount
Ġse ismic
Ġal ter
Ġat tention
ans k
The re
Ġle aving
ĠL ake
av al
Ġcont r
Ġpo ly
erm ud
à¨ ²
ãĤ ¤
ĠÙ Ĥ
Ġapp reci
Ġqu iet
Ġdr iving
Ġinst all
Ġfind s
Ġrem ain
ÙĪ ÙĨ
Ġcr ust
Ġà¨ ¸
Ġà° ª
rop ri
Ġ195 0
Ġequ al
Ġappe ared
Ġallow ed
Ġcond ition
Ġredu ced
Ġconcer t
Ġbutter fly
ĠCal ifornia
Ġmechan ical
Ġmur der
Ġrelative ly
lym pic
3 3
: //
f all
i as
m ical
n es
à ¶
Ġc ater
Ġc ous
Ġb rown
Ġm ental
al am
Ġth in
ĠS an
ĠC at
ad y
Ġfollow ed
ĠH ist
ĠM ic
ĠD utch
if er
Ġtr uth
Ġse arch
Ġal k
op s
Ġsh ar
ĠO ld
Ġnot e
ight ly
ãģ į
ãģ ķ
Ġpr int
Ġcomp ress
Ġsp ring
Ġam ounts
à´ ²
Ġad ults
Ġcomm and
à® ®
Ġbuilding s
Ġdet ect
Ġqu ar
Ġdr um
Ġmus ical
Ġser v
Ġsay ing
Ġsc en
Ġfeel s
Ġ[ +]
Ġend ed
Ġthink ing
Ġexper iment
Ġdiv ide
Ġproper ly
Ġlisten ing
Ġorigin ally
Ġcreat es
Ġseem ed
Ġimpro ve
Ġut ter
tar ctic
ĠJew s
Ġregard ing
ĠMond ay
I C
i en
m at
å Ī
Ġs en
Ġs an
Ġan cient
Ġin structions
Ġth ous
Ġh tt
Ġl if
Ġst ores
ĠB o
ĠB eng
ĠB ermud
il ities
à¤ ¬
vie wer
Ġne utral
Ġse m
ĠE lect
Ġno ise
ĠTh anks
Ġro t
Ġbl ank
ub l
Ġfil led
ne utral
Ġfl ight
Ġco ach
Ġthan k
à® ¯
ĠSt ar
Ġ200 1
àµ Ĩ
Ġàª ķ
Ġ× Ĳ×
Ġbro ke
à© ±
Ġes cape
Ġball oon
Ġann oy
Ġiss ue
Ġopp osite
Ġinstr ument
Ġbehav ior
capital ize
[ +]
b el
l ob
l ife
l ength
n ie
u ild
z z
en ing
Ġw arn
Ġb ud
ti le
ti al
ll s
ll ig
ad ed
am in
os itive
ĠM ah
Ġprodu cer
Ġcomp ound
Ġli p
ĠHe at
Ġro se
Ġlist ed
à¦ ¸
Ġstud io
Ġbuild s
ĠAr my
Ġind ex
ĠAn tarctic
Ġrep air
ÙĪ ÙĦ
Ġright s
Ġ199 0
ven tion
áŀ ¶
Ġsol o
Ġwarm ing
Ġrece ive
Ġstand ing
Ġsuccess ful
Ġdissol ved
Ġprecip itation
7 8
9 3
c ol
w ar
Ã ¨
Ë Ī
å ħ
Ģ à¸
Ġt ank
in et
Ġf ix
or ter
Ġto x
Ġh aven
ur s
ag n
il s
ĠH aving
ĠM c
Ġtr i
est ing
Ġal le
Ġsh are
ri an
ĠO klahoma
Ġcomp ounds
Ġfe ll
ens ion
Ġsm oke
ĠÙ ¾
ĠAnd y
Ġàª ¸
Ġ[ -]
Ġacc ur
Ġsing ing
Ġmet ers
Ġsitu ations
Ġteacher s
Ġreac hes
Ġfar ther
Ġstrong er
Ġwalk ed
Ġvolcan oes
Ġtrip le
Ġswe at
ĠDan iel
Ġbatter ies
Ġboil er
Ġfa ith
Ġalphab ets
Ġvehic le
Ġcapill aries
pill ar
2 6
a ign
c omm
l a
n ers
r am
he ast
Ġs atell
Ġc red
Ġp ounds
le ton
Ġm ine
Ġd a
Ġd ies
Ġh un
Ġg am
Ġl ies
Ġn ine
Ġon to
ĠS en
ĠH en
Ġne go
if f
Ġch ocol
Ġj ump
pe l
The y
ĠJ ane
ak ed
Ġwould n
Ġun cle
ian a
Ġcont act
Ġrec ording
ra ight
ĠV en
are ly
pt oms
oth ing
ãĥ ©
Ġcontain ed
Ġaffect ed
Ġchang ing
Ġ× ľ×
Ġfr uit
iver se
Ġmag az
Ġmem ory
Ġchem istry
Ġ& #
Ġcool s
Ġproper ty
Ġcover ed
Ġassoci ation
Ġcop y
Ġleg al
Ġeff ective
Ġbreat he
ĠCent ral
ĠAfric a
Ġtou ch
Ġstat us
Ġdestroy ed
ĠWas hington
4 1
B ut
F act
b a
c al
d own
f ish
p x
u x
Ġ ÚĨ
Ġa te
Ġa void
es tiv
Ġm ax
Ġin ten
ct ors
Ġanswer able
se y
ly ing
ĠW it
ĠS ar
ĠC ells
Ġst ri
ĠP et
ĠB attle
ch o
ist an
Ġtr aining
op ic
Ġwor st
Ġsh ape
Ġj og
Ġte a
ĠL ar
Ġac qu
Ġli ber
ond s
Ġim press
Ġsp r
Ġdis p
Ġbeing s
Ġed ition
ãĤ ¹
Ġob ser
Ġstr ess
Ġgl ad
Ġacc om
Ġact ing
Ġà¨ ¦
Ġz one
Ġsk y
Ġbro ad
Ġinvol ves
ĠTH IS
Ġexpress ed
Ġarg uments
Ġgif ts
Ġlog ic
Ġconnect s
ĠKing dom
Ġtechn ology
Ġcoun ter
Ġsqu are
Ġsurpr ise
Ġhorm ones
Ġaltern ative
9 8
> ,
E L
H ead
l ie
m en
y ard
Ġ Ã©
en cing
Ġs at
Ġw ire
Ġo dd
Ġb ored
or ph
it er
Ġm al
Ġm ut
al ing
ce ed
Ġfor ced
im al
ĠB ook
ĠB ible
à¤ ¥
ĠH aw
Ġas pect
Ġcon c
Ġde finitely
if fer
ĠR ock
Ġch ief
Ġse c
us es
ĠO PT
ĠL ouis
Ġun s
Ġyour self
à° Ł
Ġgr ade
Ġad op
Ġ3 1
we ight
ĠV er
Ġbuy s
ÛĮ Ùħ
ĠAn other
ĠUn fortunately
Ùĩ Ø§
Ġact s
Ġ199 8
Ġent ered
Ġmed ium
Ġlead ing
Ġsitu ated
Ġexp osed
Ġeas ier
Ġpower ful
Ġappe ars
Ġclean ing
Ġgen us
à¹ Ģà¸
Ġdrink ing
Ġhyd ro
Ġflu id
Ġprim arily
anc is
Ġmat ches
ĠØ± Ø§
ĠMich ael
Ġcompe tition
Ġorg ans
ĠPart y
Ġbot tle
Ġexplan ation
Ġnego ti
) ",
7 1
A l
E T
W here
[ '
e f
p et
u nder
z ens
Ġt end
Ġthe ory
en ed
is ters
Ġc ere
or g
or gan
Ġm it
Ġm ap
Ġm athe
ed d
ĠA vailable
Ġre verse
ay a
Ġfo l
Ġr ing
Ġr id
Ġcon struct
ĠO ur
ĠL ove
Ġup set
à° µ
à° ¸
iz ing
og lob
art in
Ġdis ag
Ġinf ect
ĠÙ ĥ
Ġapp ropri
Ġgreat est
Ġele v
az i
az z
Ġhelp ful
à¯ Ī
Ġrecommend ed
Ġ199 1
Ġz oo
ĠOn ly
à© °
Ġlead er
Ġsal es
Ġtemper atures
Ġrecord ed
Ġcard s
Ġbat tle
Ġphot o
Ġbreat h
Ġconnect ed
Ġstruct ures
ĠCo al
Wh o
Ġcand id
Ġnumer ical
ru pt
osy nt
iÄ Ļ
Ġannoun ced
ansk rit
oglob in
3 1
6 6
7 6
A r
e al
r ate
s entence
s hip
v ince
á º
ç ļ
Ġ !
on a
Ġthe r
Ġf ail
Ġf urn
Ġp ush
Ġm ad
Ġd rought
Ġth inks
Ġg one
ĠT er
ĠA pril
om o
ce ans
ot ed
ĠB U
ĠB oth
th rop
ĠM il
Ġtr aff
Ġsu s
Ġv an
ĠN ap
xt ure
ĠIn put
ri a
Ġpar a
ĠJ es
Ġà¤ ²
app ing
Ġbec oming
Ġgr ab
ra id
à® ±
Ġapp le
cc ording
Ġreason ing
Ġ× ©×
Ġcap able
Ġstart ing
Ġstar ring
Ġexp ensive
Ġwind ow
Ġmag n
Ġmem br
Ġsoil s
Ġcontin ued
by ter
Ġpred ict
Ġpred ators
ĠOther wise
Ġcook ing
Ġtele phone
Ġhor rible
Ġnor thern
Ġcreat ing
Ġru le
Ġgramm atically
Ġbow l
Ġpriv ate
Ġnewsp aper
Ġhtt p
osynt hesis
Ġtraff ic
3 7
O W
j i
Å Ļ
á ¹
Ġt or
on se
is tics
Ġo ceans
Ġc ulture
Ġm ich
Ġh int
Ġh uge
ll y
Ġl ie
ĠT ues
ĠA L
ir d
ur d
Ġst raight
ĠP ut
ter day
ch ar
Ġne ither
ul ations
ain e
ĠE nd
Ġpar as
ĠL o
pp er
ang ed
ãģ ı
ĠØ ¬
red ients
og ens
à´ ®
cl usion
Ġpass enger
Ġpre m
à¸ ±
ĠSt ud
Ġman ager
Ġdif f
Ġsc ript
Ġsee ing
Ġloc ations
Ġ7 0
Ġ9 0
Ġdist rib
Ġbus y
Ġid en
ĠPl ace
Ġclean ed
Ġfish ing
Ġpair s
Ġemo tions
ĠLe ague
oll y
Ġmel ting
Ġvi br
je ctive
á» į
Ġeconom ic
Ġreport ed
ĠSpe ech
Ġdire ctions
Ġgar age
ĠKore an
Ġcontrad ict
Ġsubsequ ent
Ġrap id
tebr ates
Ġagric ulture
estic ides
Ġcater pillar
ĠAntarctic a
çļ Ħ
2 2
7 9
E G
N e
R L
R ead
W e
b io
c raft
g inning
i ors
s es
Ġ {
Ľ ×
an te
Ġp age
as p
ĠT ake
Ġn est
ĠS IMILAR
ĠC ong
ĠB oy
Ġas sem
Ġcon cepts
Ġhe n
Ġtr ib
Ġch all
Ġnot es
ĠRe m
Ġcl ue
Ġcl oser
Ġcomp ris
ĠØ Ń
ĠTh ank
Ġà¤ ī
Ġform ation
Ġtext s
ra z
Ġclass ic
Ġinter p
Ġstr ings
Ġsc ene
Ġbre aking
ash ion
Ġconsid er
Ġacid ic
ann el
Ġer a
ĠGr ade
Ġyoung er
Ġcontin ues
Ġfall ing
Ġexperi ences
Ġexpress es
Ġsym ptoms
Ġphot osynthesis
ĠâĢ Į
Ġmom ent
ĠJe ff
Ġnucle ar
Wh ich
Ġmic ro
Ġpus hed
Ġalphab e
Ġreti red
Ġconcent ration
Ġadminist r
know n
Ġbod ies
Ġbrit ish
ubl ican
O h
o llow
s u
Ä ħ
Ġ Â
Ġs av
at it
an swer
Ġp ool
Ġp iano
Ġm all
ro l
Ġg ather
ĠT ime
iv ia
ĠS T
ĠS ing
ir ty
ig r
ig uous
ĠB est
ĠB ul
Ġsh ared
ãģ Ĥ
Ġtw enty
Ġcomp osed
ĠTh rough
ose ph
à¨ ¼
Ġfact ors
ĠCon t
pt on
ãĥ Ī
Ġdiffer ences
Ġcr im
Ġgrow n
Ġà¦ ¸
Ġlab or
Ġinv est
Ġmiss ion
Ġnear by
Ġcharacter istic
ÃŃ a
Ġtre ated
Ġ196 8
Ġdiv is
Ġopen ing
Ġdep ending
Ġkind s
Ġsupport s
Ġfield s
Ġcop ies
Ġsuccess or
Ġmeet ing
ĠEm pire
Ġjo in
Ġdou ble
ĠNor thern
Ġtal ks
Ġtick et
Ġtub es
ste in
Ġalcoh ol
Ġaf raid
Ġpiz za
ĠNap ole
3 4
A s
b ing
h aps
p art
Ġt v
is her
Ġw inning
Ġp atter
it z
Ġin h
Ġto ken
Ġd yn
Ġh ang
ĠS to
ĠS ci
ĠS anskrit
ag m
ess or
ĠY e
ill er
ĠR ich
Ġtr ash
Ġse at
ĠN avy
Ġnot ed
ĠJ ones
ĠL angu
ak a
cess or
Ġcl oud
Ġà¤ Ĺ
ail ment
our t
Ġim ag
ip ino
ĠU RL
port s
Ġfl o
Ġdes p
Ġcar b
ra el
Ġspe ech
ãĤ ĵ
à¸ ĩ
Ġ4 5
enti ally
Ġcr ime
Ġact ors
Ġmed al
Ġfour th
Ġown ed
ann y
ĠGr and
Ġlos es
gar ian
urope an
à¹ ī
Ġdam aged
Ġbreat hing
Ġreprodu ction
Ġfung us
ĠMin ister
Ġhate ful
Ġepis ode
Ġchick en
Ġimmedi ately
Ġchocol ate
iffer ent
9 7
C an
T H
c a
c r
c ers
f ormation
h h
h and
r uc
t an
v ious
w in
w ord
y er
Ä į
Ø £
Ø ¶
Ġ ion
on ia
Ġc ode
Ġf ashion
Ġg all
Ġn ic
ĠI ran
se ction
ĠS l
Ġfor get
ĠB el
Ġpro to
ĠG et
ol f
ĠM el
Ġtr ies
us ive
ĠF lor
ĠO K
ĠO N
Ġwe aring
Ġcl os
ĠHe alth
Ġà¤ Ń
ens es
ens us
Ġlist ener
Ġsp erm
à´ Ļ
Ġform ing
Ġpres er
âĢ Ŀ
Ø± Ø¯
Ġàª ®
Ġ× ĳ×
Ġcaus ing
ĠBe fore
à² °
Ġ199 3
Ġà¨ ķ
Ġinte llig
Ġwind s
Ġweek end
Ġer up
less ly
Ġ196 0
Ġsupport ing
iam ent
Ġtopic s
Ġabsolute ly
Ġmel ted
Ġhur t
Ġconsist ing
Ġestab lish
ĠGo vern
äº º
ĠAfric an
Ġindust ry
Ġdefin ed
ĠHell o
Ġappl ied
chi oles
ĠLuc y
Ġbath room
Ġtit les
ĠVen us
estiv al
Ġappropri ate
4 4
C l
O f
V ER
t own
u le
w ich
Ã ±
Å Ľ
Û Ĵ
å ¤
å ı
ç Ķ
Ġc ul
Ġc oc
Ġf c
Ġb ass
it tle
le e
Ġth us
Ġh am
ic ans
ĠI N
ĠA ND
Ġre v
Ġre ve
Ġre viewer
ut s
ld er
ĠS al
Ġst ated
il led
Ġr ough
ĠH all
um ber
Ġse ed
Ġal ma
Ġar ch
uc ks
ĠRe volution
Ġac adem
pl ace
cl ass
Ġknow s
Ġfl our
pr ing
Ġi od
Ġcal ifornia
Ġstr ateg
à¬ ¤
Ġsl ightly
Ġ199 5
Ġmusic ian
Ġset tle
ĠOn ce
Ġstar red
Ġ198 4
Ġ198 9
Ġatt r
ãģ® æ
Ġequ ally
Ġ194 0
Ġgirl friend
Ġcard inal
ĠBrit ain
Ġapart ment
ĠPres byter
Ġhur ric
×¨ ×
Ġcri tic
ãģ£ ãģŁ
Ġpers pective
Ġindepend ent
Ġspir it
Ġsche du
ĠBeng ali
ĠHen ry
ĠTues day
' /
A Y
C T
c up
l ines
o id
r d
y p
¢ ×
å Ĳ
è ¨
é ģ
Ġ Û
Ġ __
Ġt on
in ary
Ġo d
Ġf et
it ter
al a
Ġg ym
ĠT urn
Ġbe ar
id ae
Ġst orm
ap ers
ĠD ep
Ġde press
ĠR oy
te x
Ġtr uly
Ġse es
op in
and a
age ment
Ġj unk
ri age
Ġte en
el es
Ġà ¥
Ġpr in
Ġcomp on
àª ª
Ġà¤ ¯
ĠK im
Ġbl ow
à´ £
ne gative
Ġins tit
Ġpre par
Ġele ph
Ġinter section
Ġdown lo
à± Ģ
Ġ× ŀ×
à¬ ¨
Ġcr ack
Ġmin ute
tim ate
Ġfr ame
àº Ļ
com p
Ġdig it
Ġmill ions
Ġweather ing
Ġbat t
à³ ģ
Ġagree ment
Ġmi xture
Ġindivid uals
Ġkil omet
ros c
Ġanti bio
Ġwave length
Ġprim ary
Ġfreez es
ĠFil ipino
Ġviol ence
Ġneighbor hood
Ġcolon ies
Ġrom an
ĠRep ublic
Ġdiscover ed
ĠHy pothesis
Ġexha led
Ġgro cer
ĠWit nesses
Ġaccom pl
Ġalphabe tical
5 3
S h
d en
h ov
i h
i Ã³n
l iament
r s
w o
ä »
Ġa er
es tive
is l
re al
Ġo s
Ġc iti
Ġp sy
Ġm ud
ar ian
ĠA ut
ĠA th
Ġbe at
her ent
ad ing
Ġst ations
Ġ" "
Ġcon ne
ĠD em
Ġch am
Ġal titude
ĠF ind
out heast
ĠL aw
Ġprodu cing
ber g
àª ¶
Ġun a
à¦ ¼
ous ly
Ġread er
Ġover l
ath olic
Ġfact ory
Ġstep s
Ġbr ief
Ġdec ision
Ġchar ged
Ġàª Ľ
Ġ7 8
Ġà¦ ¬
Ġset ting
Ġ198 3
Ġint act
Ġlabel s
Ġcust omers
Ġperform ed
Ġrad i
Ġexpl icit
ĠZ h
Ġdep end
uss ia
ĠØ§ÙĦ Ùħ
Ġill ust
Ġprom pt
Ġbag s
Ġfertil iz
Ġveget ables
Ġing redients
osy stem
Ġhon or
pir ation
Ġju ice
ĠJenn y
Ġcommer cial
Ġstor age
ĠTel ugu
ĠNapole on
'/ '
6 8
7 3
O ne
g u
g iving
h ard
i pe
j ust
n al
y o
y ond
ģ à¸
Ġt u
Ġa x
on na
Ġs ink
Ġs ends
re land
Ġw it
Ġc ig
Ġc row
Ġc rop
Ġf asc
Ġp it
Ġd ur
Ġl oose
Ġl az
st on
ĠW estern
ĠS us
Ġu m
Ġr ules
Ġfollow s
ol a
ist on
and on
Ġj ack
ab i
Ġcomp ared
ep s
Ġun ivers
Ġro les
à° ®
ĠK en
à´ ª
Ġtransl ating
Ġcomm it
Ġalbum s
à¸ µ
Ġperson s
up id
Ġdec omp
Ġmus h
Ġfind ing
Ġprov iding
ĠSh ort
Ġacc ident
ĠØ§ ÛĮÙĨ
Ġelect ro
à² ¨
áŀ ĵ
Ġ198 2
Ġ197 1
Ġpower s
Ġinc omp
ĠØ¨ Ø±
Ġpoll ut
Ġcontin uous
ĠCar olina
go als
Ġoper a
Ġoper ations
Ġfre ed
Ġpred e
àŃ ĩ
ken azi
Ġcold er
Ġnovel s
Ġreach ing
Ġà¤ª à¤°
bur g
Ġparticular ly
Ġcamp aign
Ġeconom y
Ġstreng then
Ġvac ation
Ġsurround ing
Ġenc our
esp onse
Ġevapor ates
ophy ll
club s
Ġtradition al
iber n
lan tic
Ġinfe ction
Ġserv ices
eal and
L ink
O M
O rig
c or
Ð ²
Ð »
in als
is hes
Ġs ke
Ġs ides
Ġc ow
Ġf av
Ġf rog
Ġm ac
Ġl as
ĠT oo
Ġn ation
iv a
iv ision
Ġre b
Ġy og
ur t
Ġst ret
Ġfo ld
Ġr ice
Ġr ib
ĠH em
ĠR E
Ġv it
us ing
op her
Ġsh ipping
un ity
Ġk ick
ĠJ o
ĠL atin
Ġ19 30
ĠCh icago
Ġà¤ ¶
Ġus ual
à´ ³
cl aim
à¨ Ĥ
Ġdi pl
we et
ĠV ir
ĠAr g
Ġdr ama
ãĥ ª
clud ing
Ġext ract
Ġ199 2
ãĢ į
Ġatt ached
Ġ197 5
Ġsugg est
Ġhot ter
ĠPl ant
ĠCar l
Ġfar mer
Ġburn ed
Ġbed room
Ġthir ty
ech n
Ġproper ties
Ġcost s
Ġleg s
ĠOr gan
Ġsurv ival
ĠâĢ ľ
Ġbor row
Ġcomment ary
ĠTe xt
ĠBuddh ist
Ġdem and
Ġfight ing
Ġpor tion
ĠHar ry
Ġrepe ated
Ġindic ating
Ġhem oglobin
ĠKore a
Ġess ential
Ġhabit at
Ġshel ter
Ġcomfort able
Ġexh ib
zo a
Ġhung ry
Ġplatform s
Ġprede cessor
' :
8 6
9 0
B C
L Y
c ast
c ription
r as
r ates
u ation
y g
y ing
z ech
Ã º
Å ¾
Ø «
å ľ
Ġ 00
Ġ vel
Ġt aste
Ġf ear
Ġb an
an i
it ure
al ys
Ġd ens
Ġh ouses
ĠT O
ĠT amil
Ġn erv
ĠS ediment
ĠC oun
ĠB ack
Ġmo ist
Ġtr a
ant ed
ĠIn ter
Ġj oy
ri al
ĠO b
Ġme x
Ġex cess
Ġso ap
Ġwe b
ber ry
àª ¡
àª Ĺ
àª ľ
àª Ł
Ġà¤ ĩ
à° Ĺ
Ġim ages
Ġsp in
ĠV ol
à¸ £
Ġmay be
Ġgreat ly
Ġstr ange
Ġàª Ĩ
Ġlo an
à¬ ķ
ĠØ§ Ø³Øª
Ġbo at
osp her
Ġadd ress
Ġdecre ased
Ġ199 6
Ġcent re
amp s
Ġz ero
Ġtest ing
ãĢ Į
olog ist
Ġà¤ķ à¤°
Ġ195 2
Ġwar mer
Ġyes terday
ĠEx cellent
Ġtot ally
Ġconver ts
Ġstrong ly
ï¼ Į
Ġide al
Ġenvironment al
Ġsuper mark
Ġfrequ ently
Ġmess age
ĠAc id
Ġbill ion
Ġsurround ed
ãģ¾ ãģĻ
Ġfair ly
Ġfif th
ĠFin ally
Ġsod ium
Ġdanger ous
Ġutter ance
Ġsatell ite
hov ah
* *
A CE
E ng
I D
d is
g n
h o
h yd
l i
m ail
p o
Ã £
Ã ¼
Ð º
ł ×
he l
es ota
Ġs i
Ġs tim
re le
Ġc u
Ġc as
Ġf ig
Ġb le
it an
Ġm aster
Ġin tention
Ġto oth
Ġd avid
Ġh a
ic i
ĠT ai
Ġn ick
ĠA M
ce ler
ot land
ir a
Ġst ereotype
ĠB ay
Ġhe ro
um es
if ies
Ġtr ade
Ġtr acks
Ġv ary
Ġsh ot
ĠO F
ĠO l
ĠO tt
Ġk g
Ġwill iam
ĠL ong
ĠL ind
Ġar ms
ish op
ard s
ĠTh omas
Ġher self
à° ¡
Ġsp ending
og raphy
per or
ãĤ Ī
ject ed
Ġclass ified
Ġbr and
Ġdec ides
Ġser ve
ph y
inn esota
Ġmin ister
Ġà¦ ª
Ġcle ver
Ġcur ren
ÙĬ Ø©
Ġà° µ
Ġsign al
Ġà´ ķ
Ġburn s
iet nam
cap s
Ġauthor ity
Ġmel t
ĠNe gative
Ġrespon sible
Ġsell ing
Ġreplace ment
Ġtreat ment
Ġcomb ined
Ġharm ful
Ġaw esome
Ġsens es
asc ular
Ġboil ing
áŁ Ĵ
Ġcub e
ĠChar les
ĠØ¹ ÙĦ
Ġdrop s
Ġly ric
Ġscient ists
Ġur ine
Ġec osystem
Ġâ Ĩ
ĠJes us
ĠFlor ida
Orig inal
4 6
5 00
D o
F C
S ome
f ather
g i
l am
y an
y ou
Ä Ľ
å Ľ
è ¦
Ġt ight
Ġa head
er us
Ġb en
Ġp ores
as is
al ian
Ġh omes
Ġh ockey
ro it
Ġg od
Ġg iant
Ġre volution
ion e
se cond
Ġfor g
Ġfor k
il a
à¤ ĸ
Ġr ab
ĠH or
ĠH ot
os a
os h
um ing
ĠM ake
if t
Ġtr ail
Ġse am
Ġal g
ĠF our
Ġle af
Ġno tice
Ġun its
Ġcor ner
ry s
Ġ3 6
Ġprocess es
Ġread s
à¨ Ĩ
ãĤ ¢
Ġhold ing
Ġpres id
à¤¾ à¤Ĥ
aus ible
ÛĮ Ø¯
Ġinter view
Ġear ned
Ġàª ľ
Ġcr ick
Øª Ø±
Ġà¨ µ
Ġresult ing
Ġmar ine
Ġ198 5
àº ²
Ġsw itch
Ġhard er
Ġatt ract
Ġ197 2
Ġown er
ĠBl ue
Ġ195 3
Ġvis ible
Ġdig estion
Ġbas is
Ġter rit
Ġcollect s
Ġprac tic
Ġhor se
Ġintern et
ĠJe hovah
ĠChe mical
Ġveget ation
Ġwat ched
Ġnumer ous
RE AT
ĠIntern ational
Ġdro pped
ĠComp any
Ġpump ed
Ġhistor ic
ĠBir ds
Ġdrug s
Ġhop ing
ĠRec ords
enc ies
Ġnar row
Ġchap ter
Ġannoy ing
Ġmush room
Eng lish
. ',
C om
c ie
e cutive
f irst
r ich
y r
Ä Ļ
in ate
Ġthe ater
Ġo h
Ġf irm
Ġm ars
Ġth ief
ĠI ce
ser t
Ġbe er
se x
ot ing
ĠS outhern
et t
ag ers
Ġwith d
ĠH ave
Ġpl ain
os en
Ġsh oot
ri er
ĠO ut
ĠL ight
ĠL ife
ĠL isa
Ġcomp an
ĠCh opin
à° ª
ree k
Ġper man
Ġsupp l
Ġspe ct
à¨ ķ
ĠPro vince
Ġag reed
ĠÙ Ĭ
Ġunder ground
Ġpres ents
Ġartist s
Ġair port
Ġfriend ly
Ġsub s
Ġloc k
ĠThere fore
ĠBe ing
Ġinv ented
St ate
ÙĬ ÙĨ
Ġ198 7
Ġwind ows
Ġer r
ĠItal y
ĠGener al
Ġdiv ided
Ġgen es
Ġstop s
Ġgluc agon
esse e
ĠAsh kenazi
Ġdest ruc
×Ķ ×
Ġredu ce
ĠWith in
Ġneigh b
ãģĻ ãĤĭ
Ġdou b
Ġpri or
Ġfertil ization
Ġpath ogens
Ġtick ets
Ġtiss ues
Ġmeth ods
Ġvehic les
van ia
Ġcapt ured
ocr atic
Ġdomin ant
ĠMus ic
Ġcab inet
Ġdepos ited
lympic s
Ġhun ting
ĠHaw ai
Ġinterp ret
Ġgrocer y
Ġdens ity
ĠCoun cil
" ).
5 6
9 1
B uild
C A
n ÃŃ
p m
p re
r ons
s ur
w ed
é Ģ
Ġo ven
Ġan ger
Ġc oo
Ġc aught
Ġf le
Ġb ind
Ġm ir
Ġm ol
Ġin her
Ġd ad
Ġd omes
Ġd iction
Ġl uck
ĠC ryst
Ġst ays
Ġst upid
am ent
am orph
ay alam
ac ific
ag us
Ġpro min
Ġr ac
ĠY OU
ill y
Ġmo b
Ġmo on
ĠM et
ĠM ix
ĠR ose
ĠF red
Ġsh ut
Ġme ets
Ġte x
Ġpar ent
ak istan
Ġpr oud
Ġun ion
Ġun like
ian ce
Ġgr apes
ip es
Ø§ Ø¨
Ġdis ap
Ġ3 2
Ġco at
ra it
Ġsm ell
Ġsm oking
Ġjob s
à® ³
Ġvill ages
ple tion
ĠV e
aus es
Ġchar ges
Ġinter ior
Ġob vious
Ġhum or
Ùħ Ø§
ĠFor ce
Ġmin eral
à² ²
Ġreg ions
Ġbig gest
ĠInd ones
Ġ197 3
Ġpick s
Ġcountry side
Ġroom s
Ġcharacter ized
Ġatm ospher
Ġfull y
Ġsign als
Ġexpl ain
Ġdeterm ined
Ġ194 7
Ġmark ed
Ġdig ital
Ġcut s
Ġmass ive
Ġge ograph
Ġide as
oles ter
Ġoffic er
Ġchair s
Ġaff ord
Ġinstr uments
ĠPre mise
ĠMag ma
Ġmer onym
Ġcapt ure
ww w
Ġpun ct
Ġachie ve
Ġaud i
gin ia
Ġarter ies
Ġpul led
Ġpolar ity
Ġdiscuss ion
Ġgam et
Ġciti zens
Ġpollut ants
Ġnerv ous
Ã£ o
ĠâĨ Ĵ
. ;
7 4
A nd
G ood
P OS
b ro
b ased
h ow
p erson
s pe
u ing
w orms
Î ±
ĵ ×
he im
at re
Ġw ound
Ġw ax
Ġc am
Ġc yl
Ġc ensus
Ġf alse
ti fic
Ġp ure
Ġp ens
Ġp up
ed ing
Ġd ust
Ġh unt
Ġl ighter
Ġl ava
Ġn d
Ġre ality
st ery
id ers
ĠS aint
ĠC ourt
ag s
ĠG old
ĠG REAT
à¤ ¼
Ġr ack
Ġr ail
ĠH i
ĠM ass
Ġde lic
Ġal ive
Ġsh orter
un ction
ĠL in
ĠL ittle
Ġac tions
Ġà¤ Ķ
Ġus age
our s
Ġen em
ip ed
ateg ory
ĠU nder
Ġev il
Ġins ight
Ġinf er
Ġco ins
Ġsy n
à® µ
ĠV ictor
Ġqu al
Ġair craft
Ġbr ings
Ġser ving
Ġevery day
Ġevery where
Ġàª °
Ġem it
Ġold est
Ġend s
Ġaut h
Ġelect rom
Ġà¨ ¨
Ġmet amorph
Ġgre w
tern al
Ġ198 8
Ġdist urb
Ġ197 7
Ġcharacter istics
Ġ196 4
Ġbreak s
Ġburn er
Ġarr ange
Ġhand le
Ġconf use
Ġthir teen
Ġdig estive
Ġpain ting
Ġdef e
Ġtwe ets
Ġcook ies
Ġprogr ess
por ary
Ġappro ach
Ġye ast
ĠAustral ian
Ġsick le
ĠCent er
Ġsoft ware
Ġra ised
Ġcub es
field er
ĠFil m
Ġrespir ation
Ġfac ility
ĠBet ty
ĠApp le
Ġcomple ted
Ġthous ands
Ġmagaz ine
ĠSar ah
Ġinfect ed
Ġiden tity
Ġfet us
Ġinstit utions
Ġcrow d
rele vant
Ġcurren cy
State ment
olester ol
A t
B A
I nd
b oy
d on
e z
e qu
j a
j o
k es
m atic
o tic
p a
r ical
w or
Ã ¥
ç ī
Ġ Ú¯
Ĺ ×
Ġt ur
Ġa wards
at oes
Ġc ine
Ġc art
Ġc akes
Ġf ans
Ġb ases
as tern
Ġm ant
Ġto wer
Ġto ward
Ġh ill
Ġh oles
ll er
Ġl oud
Ġbe yond
ĠW arm
ĠC ap
ĠC roat
Ġst ock
am pton
ĠP oll
Ġwh om
ag alog
ĠB C
ĠB re
ĠB or
ap ed
Ġcon tem
Ġpl us
ĠM en
ĠM artin
ĠD ou
ĠD ar
ĠR ain
Ġtr ust
Ġtr ivia
Ġse ats
and y
and om
du c
Ġj oke
Ġnot able
pp ing
Ġso f
Ġcomp ar
Ġwork out
àª £
Ġun able
Ġun less
Ġun related
oc ation
Ġà¤ ı
Ġoff ers
à¦ Ł
ĠU V
ĠU sing
Ġad ap
Ġad apt
Ø§ Ùĩ
atur ally
Ġfl or
Ġdi am
ĠV o
Ġpres ence
Ġcol umn
ãĥ »
gr ade
Ġàª ħ
oh yd
Ġask ing
Ġtell ing
Ġà¦ ¨
ĠAmer icans
Ġhy p
olog ists
Ġlead ers
ĠSe cond
Ġint ended
Ġ197 6
Ġsever e
Ġinc ome
Ġsugg ests
Ġ195 7
yl vania
Ġwarm th
Ġprof essor
Ġconf lic
Ġabsor bs
sh ire
Ġsex ually
wh ile
Ġcurrent club
!!!! !!!!
Ġappear ance
Ġstic ks
Ġmess ages
Ġdev ices
ĠJew ish
Ġsurpr ised
ili ar
Ġroll s
Ġconstant ly
Ġteach ing
Ġbron ch
Ġple ased
ĠMich igan
Ġhol iday
Ġtom orrow
Ġbal ance
Ġprep ared
Ġord ers
Ġapplic ation
Ġplann ing
anas ius
Ġquar ter
ĠBermud a
Ġmax imum
Ġcandid ate
ĠEnd ing
ĠBul garian
ĠURL s
Ġcarb ohyd
ĠAth anasius
alys is
4 8
5 9
9 6
F L
P A
[ -
b ow
f r
f ace
k i
m ond
r ie
r ight
s m
w alk
Ã ½
æ ĺ
Ġ ens
Ġt ast
Ġa v
Ġs ab
Ġc ats
Ġb er
ti ves
le ment
Ġm a
Ġd in
Ġd irty
Ġh ook
Ġh ob
ic ations
Ġn omin
Ġn arr
ent h
ĠA ccording
st ereotype
id el
ĠW ood
ĠS ally
Ġfor t
ĠB ab
Ġcon sequ
Ġhe aring
ĠD u
Ġse cre
Ġsh irt
Ġj azz
Ġme al
ĠJ ud
Ġ, .
ãģ Ŀ
Ġwe aker
ĠCh ildren
ry ing
.. ."
Ġres idence
Ġnew line
Ġdes er
Ġwant ing
Ġpres erve
ĠAr m
Ġuse less
ĠSt r
hat tan
Ġdr am
Ġman agement
Ġpart ner
air s
Ġche ese
Ġprov ince
Ġàª ¤
Ġsee k
vers ion
à² ¯
Ġz inc
à© Ĥ
áŀ ļ
ĠSp ain
Ġmiss ed
Ġput s
Ġgu ide
ĠAd am
Ġdist ingu
Ġà° ¸
enn essee
Ġnational team
ann a
cu le
Ġconver ted
Ġpark ing
ĠCol umb
Ġpoor ly
ãģ§ ãģĻ
Ġprogr ams
por ation
Ġmach ines
Ġforest s
Ġvisit ing
ĠSpe c
Ġnucle us
Ġperfect ly
Ġfa ult
Ġbron chioles
Ġepis odes
Ġhorm one
Ġinj ured
ĠRo ad
Ġprefer red
Ġscient ist
Ġbound aries
Ġprincip al
Ġrod ent
Ġcous in
Ġscen es
Ġtri ples
edd ing
Ġcompris ing
Ġadministr ative
ĠRich ard
Ġdomes tic
Ġà¤Ķ à¤°
Ġauth ors
5 7
8 1
: -
A D
M B
P l
c ount
e v
m ic
n ight
p tion
s he
s ylvania
u z
u ce
w s
y stem
ª ×
Ä ĩ
Å ¡
æ Ĺ
Ġt ip
Ġt ables
Ġt aught
Ġa id
Ġw id
Ġb es
an ia
an ches
Ġp ock
Ġp iston
ou te
Ġin ver
al is
Ġh its
ic ed
Ġg ly
Ġl ad
Ġl ens
Ġl ays
ĠT ur
ĠT echn
Ġn ie
ĠI II
ĠA lp
Ġe ars
Ġbe es
Ġbe ak
ĠW al
ĠS O
ĠS ug
oo p
ĠC ir
ĠC up
ur ies
ad ow
Ġst uck
ĠP ositive
ag netic
Ġr iding
ol is
ol ine
Ġhe l
ĠM a
ĠM ont
ĠM ex
Ġch osen
ĠF ire
Ġj us
ans ion
Ġme ant
Ġme als
ment ation
ĠL ord
Ġar en
ĠRe ference
Ġac celer
Ġop ens
od ox
ĠTh ree
Ġall erg
ond er
Ġgr aph
Ġres er
str a
Ġbl ocks
Ġgener ation
ci ples
Ġdes ert
à¨ ľ
ãĤ ¯
ãĤ ·
Ġqu it
ãĥ ĥ
Ġi i
ĠDet erm
àµ ĩ
Ġ18 0
ĠØ§ ÙĨ
à§ ĭ
Ġspec ified
Ġmin or
Ġreturn s
Ġfr ance
Ġrepl acing
Ġ198 6
Ġdevelop s
ley ball
Ġfun ctions
ĠSe ver
enn sylvania
Ġ197 4
Ġexp ands
ym ph
Ġrock et
Ġinc hes
Ġadv ent
Ġ196 6
cept ors
Ġdep th
Ġkey board
ĠPol and
Ġgovern ments
Ġspeak ers
Ġlaw s
Ġcy cles
Ġrepresent ed
Ġvisit ors
Ġstream s
Ġprevious ly
Ġcri tical
ĠIns ulin
ĠIns titute
Ġhem isphere
Ġbehav iors
à¸Ļ à¸
Ġmanufact ur
Ġhistor ical
ĠÙģ ÙĬ
Ġemb ry
Ġentertain ment
Ġchrom osomes
rup tion
ĠQue en
Ġiniti ally
Ġlip ids
ĠSto re
ĠLangu age
Ġhurric ane
Ġcig are
Ġfreed om
Ġsupermark et
Ġatmospher ic
3 6
C D
E n
S o
U S
a led
i ro
k ins
r ish
u ch
Ã ¬
è ¡
en ge
is ions
Ġs ap
Ġc able
Ġb icy
Ġh oney
ic ated
Ġl ouis
ĠT re
Ġn aturally
ĠI reland
om y
Ġe lder
st ead
Ġy uan
ĠS ulfur
Ġst al
am ina
Ġor bit
Ġr at
ĠH u
ĠH ope
Ġcon serv
os ure
ĠM er
ĠD id
Ġne oc
ĠR ay
ĠR el
ul ous
us hed
ĠE vent
and o
ĠF ACE
ĠO k
Ġcomp oser
ep er
Ġwork er
Ġwork ers
Ġun iverse
ĠØ ²
Ġro of
Ġoff ered
à° ¶
Ġhapp iness
ell y
Ġco vers
Ġpre ced
Ġapp ointed
ost er
aw a
aw s
Ġfood s
àµ ĭ
ves tig
Ġocc asion
Ġmon arch
ib b
Ġsk ills
Ġshow ing
ĠSe a
Ġatt rib
Ġoccur red
Ġsong writer
let es
Ġelement ary
Ġnational years
ĠAt lantic
Ġ196 9
Ġreac hed
Ġsign ed
à«ĩ .
Ġvir al
acks on
Ġcool ing
Ġoper ation
Ġà® ®
Ġparticip ant
Ġdra wn
ĠWor ks
ãģĹ ãģ¦
Ġleg isl
Ġmole cule
Ġsell s
Ġgrand father
Ġfrequ encies
oph agus
Ġregion al
aphr agm
Ġconsist ent
Ġing ots
Ġmeth od
Ġhar v
Ġliter ature
ĠSu per
Ġnet work
Ġjour ney
ĠMal ayalam
Ġfant astic
Ġsett led
Ġfed eral
Ġglac iers
ĠMount ain
ancis co
Ġprem ier
ĠCong ress
Ġdesp ite
Ġproto zoa
ĠPresbyter ian
Ġlaz y
ĠSus an
Ġincomp lete
ĠTai wan
5 8
9 2
I F
[ ]
d ated
h an
h arm
i ac
k o
n atural
z er
Ð ¼
ä ¼
Ġ ___
Ġt ropical
Ġs isters
at ical
Ġw el
Ġw edding
Ġo l
Ġf i
Ġf ailed
Ġb ands
ti les
or ic
or tex
tion al
ar g
Ġh ibern
Ġg asses
ĠT own
Ġn fl
ĠI d
ĠA ct
Ġre ven
ĠW ang
ĠC re
ĠC ome
