{"<s>":0,"</s>":1,"<pad>":2,"<unk>":3,"DRAFT:":4,"REFLECT:":5,"REVISE:":6,"LEARNED:":7,"[MATH]":8,"[LOGIC]":9,"[GRAMMAR]":10,"!":11,"\"":12,"#":13,"$":14,"%":15,"&":16,"'":17,"(":18,")":19,"*":20,"+":21,",":22,"-":23,".":24,"/":25,"0":26,"1":27,"2":28,"3":29,"4":30,"5":31,"6":32,"7":33,"8":34,"9":35,":":36,";":37,"<":38,"=":39,">":40,"?":41,"@":42,"A":43,"B":44,"C":45,"D":46,"E":47,"F":48,"G":49,"H":50,"I":51,"J":52,"K":53,"L":54,"M":55,"N":56,"O":57,"P":58,"Q":59,"R":60,"S":61,"T":62,"U":63,"V":64,"W":65,"X":66,"Y":67,"Z":68,"[":69,"\\":70,"]":71,"^":72,"_":73,"`":74,"a":75,"b":76,"c":77,"d":78,"e":79,"f":80,"g":81,"h":82,"i":83,"j":84,"k":85,"l":86,"m":87,"n":88,"o":89,"p":90,"q":91,"r":92,"s":93,"t":94,"u":95,"v":96,"w":97,"x":98,"y":99,"z":100,"{":101,"|":102,"}":103,"~":104,"¡":105,"¢":106,"£":107,"¤":108,"¥":109,"¦":110,"§":111,"¨":112,"©":113,"ª":114,"«":115,"¬":116,"®":117,"¯":118,"°":119,"±":120,"²":121,"³":122,"´":123,"µ":124,"¶":125,"·":126,"¸":127,"¹":128,"º":129,"»":130,"¼":131,"½":132,"¾":133,"¿":134,"À":135,"Á":136,"Â":137,"Ã":138,"Ä":139,"Å":140,"Æ":141,"Ç":142,"È":143,"É":144,"Ê":145,"Ë":146,"Ì":147,"Í":148,"Î":149,"Ï":150,"Ð":151,"Ñ":152,"Ò":153,"Ó":154,"Ô":155,"Õ":156,"Ö":157,"×":158,"Ø":159,"Ù":160,"Ú":161,"Û":162,"Ü":163,"Ý":164,"Þ":165,"ß":166,"à":167,"á":168,"â":169,"ã":170,"ä":171,"å":172,"æ":173,"ç":174,"è":175,"é":176,"ê":177,"ë":178,"ì":179,"í":180,"î":181,"ï":182,"ð":183,"ñ":184,"ò":185,"ó":186,"ô":187,"õ":188,"ö":189,"÷":190,"ø":191,"ù":192,"ú":193,"û":194,"ü":195,"ý":196,"þ":197,"ÿ":198,"Ā":199,"ā":200,"Ă":201,"ă":202,"Ą":203,"ą":204,"Ć":205,"ć":206,"Ĉ":207,"ĉ":208,"Ċ":209,"ċ":210,"Č":211,"č":212,"Ď":213,"ď":214,"Đ":215,"đ":216,"Ē":217,"ē":218,"Ĕ":219,"ĕ":220,"Ė":221,"ė":222,"Ę":223,"ę":224,"Ě":225,"ě":226,"Ĝ":227,"ĝ":228,"Ğ":229,"ğ":230,"Ġ":231,"ġ":232,"Ģ":233,"ģ":234,"Ĥ":235,"ĥ":236,"Ħ":237,"ħ":238,"Ĩ":239,"ĩ":240,"Ī":241,"ī":242,"Ĭ":243,"ĭ":244,"Į":245,"į":246,"İ":247,"ı":248,"Ĳ":249,"ĳ":250,"Ĵ":251,"ĵ":252,"Ķ":253,"ķ":254,"ĸ":255,"Ĺ":256,"ĺ":257,"Ļ":258,"ļ":259,"Ľ":260,"ľ":261,"Ŀ":262,"ŀ":263,"Ł":264,"ł":265,"Ń":266,"Ġt":267,"Ġa":268,"he":269,"er":270,"in":271,"on":272,"Ġthe":273,"es":274,"en":275,"is":276,"Ġs":277,"at":278,"re":279,"Ġw":280,"Ġo":281,"Ġan":282,"Ġc":283,"Ġf":284,"Ġb":285,"an":286,"ti":287,"Ġp":288,"ou":289,"or":290,"ing":291,"it":292,"le":293,"as":294,"Ġm":295,"Ġin":296,"ed":297,"Ġto":298,"tion":299,"al":300,"Ġd":301,"ar":302,"Ġof":303,"Ġis":304,"Ġth":305,"Ġh":306,"wer":307,"Ġ-":308,"Ġand":309,"swer":310,"ro":311,"ll":312,"ic":313,"Ġg":314,"Ġl":315,"ĠT":316,"Ġn":317,"ent":318,"ĠI":319,"ser":320,"ues":321,"RA":322,"ow":323,"FT":324,"User":325,"DRA":326,"DRAFT":327,"uestion":328,"iv":329,"ct":330,"ĠA":331,"Ġre":332,"om":333,"ĠĠ":334,"Ġe":335,"ut":336,"Ġbe":337,"Ġanswer":338,"ce":339,"st":340,"Ġq":341,"ve":342,"ion":343,"ld":344,"se":345,"Ġquestion":346,"Ġy":347,"ly":348,"ot":349,"ĠThe":350,"id":351,"Ġthis":352,"Ġon":353,"ĠW":354,"ĠS":355,"oo":356,"et":357,"ir":358,"her":359,"ĠC":360,"ur":361,"ad":362,"ation":363,"Ġst":364,"Ġyou":365,"am":366,"ay":367,"iven":368,"ĠP":369,"Ġit":370,"ie":371,"Ġfor":372,"Ġor":373,"Ġu":374,"Ġare":375,"im":376,"ac":377,"ate":378,"ig":379,"nswer":380,"Ġ\"":381,"Ġfo":382,"Ġwh":383,"Ġthat":384,"ag":385,"ĠB":386,"Ġpro":387,"llow":388,"il":389,"ĠG":390,"ith":391,"à¤":392,"ver":393,"ĠQ":394,"Ġ1":395,"Ġr":396,"Ġfollow":397,"Ġfollowing":398,"Ġwith":399,"ĠH":400,"ter":401,"ap":402,"ol":403,"ch":404,"th":405,"vie":406,"Ġas":407,"ess":408,"Ġcon":409,"Ġpl":410,"ĠY":411,"Ġhe":412,"os":413,"Ġwas":414,"um":415,"ill":416,"Ġmo":417,"ers":418,"ĠM":419,"nd":420,"ould":421,"ĠD":422,"Ġ(":423,"ke":424,"rom":425,"ence":426,"Ġde":427,"Ġne":428,"if":429,"view":430,"ist":431,"ĠR":432,"te":433,"Answer":434,"Ġtr":435,"Ġfrom":436,"ble":437,"est":438,"ul":439,"Ġcom":440,"'s":441,"ase":442,"ant":443,"ave":444,"Ġch":445,"Ġ'":446,"Ġdo":447,"Ġsu":448,"Ġv":449,"Ġse":450,"us":451,"ĠWh":452,"Ġgiven":453,"ĠN":454,"Ġal":455,"ain":456,"ĠE":457,"Ġab":458,"xt":459,"put":460,"entence":461,"op":462,"Ġ2":463,"Ġby":464,"igh":465,"and":466,"du":467,"ĠYou":468,"Ġwor":469,"Ġat":470,"age":471,"ĠQuestion":472,"ĠIn":473,"ĠF":474,"ĠGiven":475,"ask":476,"Ġhave":477,"Ġsh":478,"Ġj":479,"Ġcan":480,"ood":481,"ther":482,"Ġtask":483,"ri":484,"act":485,"tic":486,"end":487,"tions":488,"pe":489,"ĠĠĠ":490,"Ġsentence":491,"ĠO":492,"ans":493,"ome":494,"un":495,"ich":496,"Ġme":497,"ment":498,"Ġte":499,"ive":500,"Ġnot":501,"ort":502,"Ġk":503,"all":504,"Ġreview":505,"out":506,"The":507,"Ġex":508,"to":509,"Ġle":510,"ight":511,"ud":512,"Ġwhat":513,"Ġpar":514,"el":515,"Ġwill":516,"ĠJ":517,"ice":518,"ĠAnswer":519,"Ġ,":520,"ĠL":521,"gh":522,"Ġar":523,"pp":524,"Ġprodu":525,"uc":526,"ang":527,"ity":528,"ass":529,"ĠRe":530,"rit":531,"ish":532,"Ġwhe":533,"ect":534,"ound":535,"',":536,"ãģ":537,"ace":538,"Ġà":539,"lease":540,"ak":541,"ab":542,"Ġinto":543,").":544,"ies":545,"ook":546,"ust":547,"ong":548,"ard":549,"ated":550,"ĠWhat":551,"Ġabout":552,"ener":553,"Ġone":554,"Ġ.":555,"Ġ19":556,"Ġso":557,"ough":558,"Ġwe":559,"ame":560,"rect":561,"ater":562,"ff":563,"ack":564,"Ġout":565,"ally":566,"one":567,"Ġpr":568,"ine":569,"Ġmore":570,"ide":571,"Ġtw":572,"Ġtrans":573,"any":574,"av":575,"Ġproduct":576,"00":577,"ue":578,"Ġbu":579,"'t":580,"ere":581,"cess":582,"very":583,"ts":584,"Ġac":585,"Ġwrit":586,"Ġcl":587,"ure":588,"ber":589,"itle":590,"Ġhis":591,"able":592,"ory":593,"Ġcomp":594,"ind":595,"Ġli":596,"ĠPlease":597,"led":598,"ep":599,"Ġwork":600,"Ġwould":601,"Ġbut":602,"au":603,"ild":604,"Ġhas":605,"à¥":606,"em":607,"àª":608,"Ġop":609,"Ġother":610,"Ġno":611,"Ġun":612,"ĠCh":613,"od":614,"oc":615,"oun":616,"ĠIt":617,"ĠØ":618,"ĠTh":619,"Ġpos":620,"ĠHe":621,"ake":622,"ore":623,"Ġthey":624,"Ġà¤":625,"Ġcor":626,"Ġro":627,"tive":628,"Ġdoes":629,"Ġsome":630,"Ġtwo":631,"ast":632,"Ġwhich":633,"ian":634,"Ġus":635,"ear":636,"Ġgo":637,"orm":638,"ick":639,"pl":640,"app":641,"ose":642,"ten":643,"Ġall":644,"ces":645,"irst":646,"ail":647,"ia":648,"erson":649,"cre":650,"text":651,"ob":652,"Ġoff":653,"ry":654,"..":655,"Ġfe":656,"our":657,"Ġyour":658,"ens":659,"ition":660,"io":661,"ĠReview":662,"Ġup":663,"\",":664,"ach":665,"Ġen":666,"Ġtheir":667,"Ġplace":668,"Ġfirst":669,"ary":670,"Ġcont":671,"ution":672,"ond":673,"Ġlist":674,"ng":675,"Ġpo":676,"Ġher":677,"à°":678,"Ġhow":679,"qu":680,"Ġbec":681,"ise":682,"ove":683,"ative":684,"ĠK":685,"à¦":686,"ge":687,"Ġim":688,"Ġsp":689,"Ġtim":690,"Ġgr":691,"ip":692,"Ġres":693,"red":694,"Ġlike":695,"str":696,"Ġam":697,"Ġmy":698,"now":699,"ased":700,"als":701,"old":702,"Ġcorrect":703,"iz":704,"ffect":705,"Ġhad":706,"reat":707,"Ġbl":708,"ree":709,"ateg":710,"fter":711,"Ġif":712,"og":713,"Ġper":714,"Ġget":715,"ub":716,"Ġbook":717,"Ġfil":718,"ous":719,"ĠU":720,"art":721,"ĠIf":722,"Ġwho":723,"rb":724,"à´":725,"Ġwater":726,"ause":727,"ĠTitle":728,"Ġplant":729,"Ġcateg":730,"ĠYour":731,"Ġsupp":732,"Ġgener":733,"aph":734,"Ġad":735,"Ġev":736,"ays":737,"per":738,"ational":739,"Ġanswers":740,"Ġdid":741,"Ġthere":742,"so":743,"port":744,"ents":745,"Ġinput":746,"ount":747,"Ø§":748,"Ġthem":749,"ĠThis":750,"Ġanim":751,"Ġpe":752,"ai":753,"cl":754,"ci":755,"ance":756,"ĠIs":757,"ne":758,"Ġshe":759,"ks":760,"ople":761,"urn":762,"ĠYes":763,"fin":764,"tit":765,"Ġhapp":766,"Ġknow":767,"Ġins":768,"atur":769,"Ġwhen":770,"ĠĠĠĠ":771,"Ġnew":772,"Ġfl":773,"Ġvery":774,"Ġbel":775,"lect":776,"ug":777,"Ġdis":778,"Ġshould":779,"ied":780,"Ġ3":781,"Ġdes":782,"Ġtime":783,"ord":784,"Ġfilm":785,"Ġrec":786,"Ġyear":787,"In":788,"Ġcar":789,"Ġneed":790,"Ġinf":791,"ool":792,"Ġtransl":793,"Ġwant":794,"ell":795,"raph":796,"Ġbeing":797,"lish":798,"rough":799,"ical":800,"Ġco":801,"si":802,"Ġalso":803,"Ġwere":804,"Ġbir":805,"Ġprocess":806,"Ġform":807,"Ġgood":808,"Ġthan":809,"Ġcomm":810,"Ġpeople":811,"erm":812,"itive":813,"\".":814,"Ġword":815,"ile":816,"Ġafter":817,"Ġtext":818,"ĠEng":819,"struc":820,"gative":821,"Ġnum":822,"fer":823,"Ġalb":824,"Ġstud":825,"Ġbuild":826,"ra":827,"Ġless":828,"Ġspe":829,"Ġmean":830,"angu":831,"Ġread":832,"ĠNo":833,"Ġalbum":834,"Ġmany":835,"ices":836,"Ġsm":837,"Ġplay":838,"Ġph":839,"ĠHow":840,"Ġthen":841,"row":842,"hes":843,"à¨":844,"Ġdi":845,"Ġbet":846,"nder":847,"ĠPro":848,"Ġcontext":849,"Ġbest":850,"ite":851,"Ġ5":852,"Ġnegative":853,"Ġover":854,"Ġlangu":855,"Ġed":856,"Ġpositive":857,"Ġwritten":858,"utput":859,"structions":860,"Ġag":861,"ãĤ":862,"ates":863,"Ġmost":864,"we":865,"own":866,"ĠEnglish":867,"vel":868,"oose":869,"ĠÙ":870,"Ġany":871,"Ġpass":872,"les":873,"lete":874,"Ġthrough":875,"atural":876,"Ġsy":877,"ĠInstructions":878,"Ġjob":879,"acher":880,"Output":881,"blem":882,"finition":883,"à®":884,"Ġbuilding":885,"Ġvill":886,"ĠWhich":887,"Ġ20":888,"Ġunder":889,"Ġhold":890,"ĠOp":891,"Ġdet":892,"hen":893,"Ġart":894,"Ġnatural":895,"Ġoffice":896,"ple":897,"oices":898,"Ġlanguage":899,"âĺ":900,"âĺħ":901,"ath":902,"Ġpre":903,"ĠV":904,"Ġpres":905,"Ġonly":906,"à¸":907,"Ġanimal":908,"Ġvillage":909,"âĢ":910,"ĠAr":911,"ĠWould":912,"ases":913,"Ġcompany":914,"Ġfact":915,"Ġits":916,"Ġ4":917,"ade":918,"ations":919,"ult":920,"Ġthese":921,"ticle":922,"agraph":923,"ating":924,"Ġmu":925,"riend":926,"gy":927,"Ġapp":928,"Ġuse":929,"orn":930,"ason":931,"oy":932,"ĠSt":933,"Ġ200":934,"ric":935,"Ġval":936,"ĠCon":937,"à¤¾":938,"chool":939,"enti":940,"Ġabove":941,".\"":942,"Ġqu":943,"Ġbirth":944,"pr":945,"here":946,"Ġtransport":947,"are":948,"Ġbeen":949,"ject":950,"mer":951,"Ġrel":952,"Ġbuy":953,"Ġback":954,"ink":955,"Ġeduc":956,"Ġstep":957,"Ġartist":958,"pt":959,"Ġclass":960,"Ġperson":961,"sible":962,"osed":963,"Ġair":964,"Ġbecause":965,"Ġke":966,"Ġincre":967,"Ġmuch":968,"akes":969,"Ġwrite":970,"Ġcol":971,"rib":972,"Ġparagraph":973,"Ġoptions":974,"ign":975,"?\"":976,"Ġmake":977,"Ġfriend":978,"titution":979,"ife":980,"ings":981,"Ġind":982,"==":983,"aus":984,"ction":985,"hat":986,"ories":987,"oth":988,"other":989,"ÙĨ":990,"ft":991,"Ġty":992,"Ġath":993,"Ġmay":994,"Ġoutput":995,"int":996,"Ġused":997,"Ġeffect":998,"Ġsub":999,"Ø±":1000,"Ġbr":1001,"ĠDe":1002,"ost":1003,"ors":1004,"Ġdr":1005,"Ġtransportation":1006,"atter":1007,"up":1008,"Ġstory":1009,"Ġman":1010,"ĠPerson":1011,"Ġdif":1012,"ful":1013,"ody":1014,"ÛĮ":1015,"ences":1016,"land":1017,"Ġinstitution":1018,"Ġathlete":1019,"Ġeducational":1020,"iss":1021,"Ġname":1022,"hed":1023,"Ġcould":1024,"Ġholder":1025,"aw":1026,"Ġyears":1027,"ese":1028,"Ġsmall":1029,"Ġfound":1030,"Ġeach":1031,"Ġener":1032,"ĠThey":1033,"ren":1034,"Ġcons":1035,"ars":1036,"Ġdec":1037,"Ġwhether":1038,"à«":1039,"Ġlook":1040,"Ġchar":1041,"Ġtoo":1042,"Ġstate":1043,"omm":1044,"Ġblood":1045,"Ġpart":1046,"gen":1047,"ved":1048,"Ġmovie":1049,"fore":1050,"ormation":1051,"Ġenergy":1052,"Ġsame":1053,"Ġjust":1054,"ify":1055,"air":1056,"ited":1057,"Ġmus":1058,"Ġschool":1059,"ãĥ":1060,"ĠOptions":1061,"stem":1062,"Ġwhere":1063,"Ġi":1064,"Ġgreat":1065,"Ġcategory":1066,"gan":1067,"ale":1068,"Ġfood":1069,"ĠDet":1070,"Ġele":1071,"Ġinter":1072,"ailed":1073,"Ġdesc":1074,"hing":1075,"ism":1076,"Ġser":1077,"Ġ201":1078,"cc":1079,"ting":1080,"rrb":1081,"Ġinformation":1082,"ouse":1083,"Ġsay":1084,"lrb":1085,"ph":1086,"ĠDo":1087,"ily":1088,"Ġcell":1089,"Ġcal":1090,"Ġsur":1091,"urb":1092,"Ġdown":1093,"Ġche":1094,"Ġear":1095,"arm":1096,"Ġevery":1097,"eacher":1098,"ons":1099,"Ġinst":1100,"Ġhappens":1101,"ĠShe":1102,"Ġcontain":1103,"ung":1104,"ense":1105,"ced":1106,"Ġcount":1107,"Ġsent":1108,"der":1109,"ĠAn":1110,"Ġaffect":1111,"Ġfind":1112,"Ġlong":1113,"ĠHere":1114,"Input":1115,"Ġnumber":1116,"àµ":1117,"Ġpassage":1118,"gr":1119,"ween":1120,"Ġob":1121,"ÙĦ":1122,"Ġwell":1123,"ck":1124,"ward":1125,"inal":1126,"lp":1127,"ark":1128,"Ġchang":1129,"Ġdefinition":1130,"Ġstr":1131,"Ġcategories":1132,"Ġsystem":1133,"cond":1134,"ĠDetailed":1135,"ather":1136,"ĠAnd":1137,"Ġtranslate":1138,"gg":1139,"Ġsc":1140,"Ġday":1141,"Ġprov":1142,"Ġfeel":1143,"Ġàª":1144,"Ġtitle":1145,"ĠAs":1146,"az":1147,"Ġpresent":1148,"Ġbody":1149,"Ġbetween":1150,"Ġimp":1151,"sel":1152,"ails":1153,"Ġ[":1154,"Ġsee":1155,"Ġhim":1156,"Ġbefore":1157,"Ġproblem":1158,"get":1159,"Ġ6":1160,"Ġ--":1161,"Ġmust":1162,"Ġem":1163,"inn":1164,"Ġshort":1165,"bers":1166,"Ġlar":1167,"Ġdiffer":1168,"Ġhum":1169,"Ġwhile":1170,"ins":1171,"ew":1172,"à±":1173,"Ġrem":1174,"Ġhelp":1175,"Ġreason":1176,"ĠUn":1177,"!!":1178,"Ġ×":1179,"Ġdon":1180,"ually":1181,"Ġloc":1182,"Ġoption":1183,"Ġdescrib":1184,"ought":1185,"Ġhigh":1186,"br":1187,"Ġlife":1188,"ĠContext":1189,"ire":1190,"Ġrep":1191,"ves":1192,"ties":1193,"Ġlo":1194,"Ø¯":1195,"vers":1196,"Ġaround":1197,"mber":1198,"xy":1199,"Ġold":1200,"ial":1201,"),":1202,"ball":1203,"ÙĪ":1204,"Ġmade":1205,"à¥į":1206,"Ġsentences":1207,"oice":1208,"Ġsecond":1209,"Ġsuppose":1210,"à¬":1211,"wn":1212,"Ġend":1213,"Ġdate":1214,"ments":1215,"Ġcommon":1216,"Ġsuch":1217,"uring":1218,"olution":1219,"oh":1220,"Ġfam":1221,"ull":1222,"Ġgl":1223,"stand":1224,"tle":1225,"ank":1226,"ger":1227,"res":1228,"ĠWhen":1229,"ĠNot":1230,"ah":1231,"Ùĩ":1232,"ican":1233,"Ġchoose":1234,"pic":1235,"Ġ18":1236,"day":1237,"Ġwords":1238,"Ġgenerate":1239,"Ġaut":1240,"Ġret":1241,"ets":1242,"ular":1243,"Ġsit":1244,"Ġcap":1245,"âĺħâĺħ":1246,"ĠNow":1247,"urbation":1248,"Ġocc":1249,"Ġhome":1250,"turbation":1251,"arn":1252,"wise":1253,"clud":1254,"Ġbelong":1255,"alk":1256,"Ġsl":1257,"ames":1258,"Ġcaus":1259,"Ġhig":1260,"xygen":1261,"ering":1262,"à¤°":1263,"Ġdetails":1264,"ommend":1265,"Ġunderstand":1266,"ract":1267,"ĠSh":1268,"Ġacc":1269,"à¯":1270,"Ġext":1271,"way":1272,"Ġrecommend":1273,"Ġliv":1274,"ious":1275,"Ġstart":1276,"ĠSentence":1277,"Ġright":1278,"Ġbio":1279,"ys":1280,"Ġcr":1281,"ĠØ§":1282,"Ġeven":1283,"Ġmon":1284,"Ġthree":1285,"Ġelect":1286,"...":1287,"ĠThere":1288,"Ġask":1289,"What":1290,"Ġgrow":1291,"Ġlast":1292,"Ġsim":1293,"Ùħ":1294,"Ġact":1295,"ĠFact":1296,"à§":1297,"ĠBut":1298,"Ġbo":1299,"Ġlight":1300,"ĠProcess":1301,"Øª":1302,"oup":1303,"ature":1304,"Ġfacts":1305,"Ġboth":1306,"Ġsa":1307,"atch":1308,"Ġnext":1309,"oney":1310,"à¥ĩ":1311,"ugg":1312,"ĠBe":1313,"ĠFor":1314,"Ġspec":1315,"'re":1316,"par":1317,"ty":1318,"Ġthink":1319,"ivers":1320,"Ġotherwise":1321,"Ġvalid":1322,"ss":1323,"'m":1324,"Ġway":1325,"ĠRead":1326,"Ġpol":1327,"ĠChoices":1328,"Ġ7":1329,"Ġcalled":1330,"bon":1331,"Ġbre":1332,"Ġtell":1333,"Ġmin":1334,"Ġ8":1335,"Ġel":1336,"Ġgot":1337,"Ġtranslation":1338,"Ġdifferent":1339,"ions":1340,"Ġchild":1341,"osp":1342,"atic":1343,"Ġinclud":1344,"ix":1345,"ĠWe":1346,"Ġcity":1347,"Ġsing":1348,"Ġpartic":1349,"Ġcharact":1350,"lex":1351,"ina":1352,"Ġarticle":1353,"Ġà¦":1354,"Ġlab":1355,"ĠAmer":1356,"ual":1357,"ĠAl":1358,"ility":1359,"Ġplot":1360,"Ġadd":1361,"à²":1362,"ways":1363,"Ġcle":1364,"Ġinv":1365,"Ġorgan":1366,"ants":1367,"duct":1368,"Ġmight":1369,"Ġagain":1370,"aking":1371,"ral":1372,"Ġbased":1373,"Ġexam":1374,"Ġhy":1375,"irect":1376,"ĠĠĠĠĠ":1377,"aves":1378,"Ġref":1379,"Ġdecre":1380,"'.":1381,"Ġ$":1382,"ĠMy":1383,"Ġ199":1384,"Ġtype":1385,"Ġent":1386,"Ġap":1387,"Ġleft":1388,"tim":1389,"ash":1390,"cial":1391,"Ġdirect":1392,"ides":1393,"Ġimpact":1394,"ided":1395,"ĠCan":1396,"ances":1397,"Ġthose":1398,"Ġsupposed":1399,"atis":1400,"pect":1401,"ages":1402,"Ġmoney":1403,"Ġwithin":1404,"ib":1405,"ince":1406,"Ġincrease":1407,"ven":1408,"Ġ10":1409,"Ġorig":1410,"fied":1411,"Ġturn":1412,"Ġsense":1413,"outh":1414,"Ġlow":1415,"form":1416,"Ġnow":1417,"Ġpossible":1418,"lic":1419,"Ġoxygen":1420,"Ġreg":1421,"Ġrele":1422,"Ġcome":1423,"Ġver":1424,"Ġmen":1425,"No":1426,"Ġcent":1427,"cer":1428,"Ġdeath":1429,"Ġpop":1430,"Ġlot":1431,"Ġà¨":1432,"hip":1433,"Pro":1434,"Ġplease":1435,"Ġmusic":1436,"Ġtake":1437,"Ġreally":1438,"til":1439,"omet":1440,"amp":1441,"Ġworld":1442,"ike":1443,"Ġhuman":1444,"St":1445,"Yes":1446,"ton":1447,"ific":1448,"Ġz":1449,"ĠTr":1450,"Ġphr":1451,"estion":1452,"ĠSugg":1453,"man":1454,"Ġmet":1455,"ork":1456,"ĠĊ":1457,"Ġfew":1458,"Ġ==":1459,"ĠArticle":1460,"Ġ===":1461,"Ġbig":1462,"olve":1463,"Ġgroup":1464,"Ġcells":1465,"Ġorder":1466,"Ġsk":1467,"Ġduring":1468,"Ġreturn":1469,"Ġass":1470,"Ġbelow":1471,"Ġkeep":1472,"Ġalways":1473,"Ġabs":1474,"Ġbetter":1475,"Ġperturbation":1476,"Ġknown":1477,"Ġlit":1478,"Ġrest":1479,"ĠNew":1480,"Ġresult":1481,"Ġset":1482,"ats":1483,"Ġgre":1484,"__":1485,"its":1486,"ict":1487,"tern":1488,"Ġshow":1489,"àª¾":1490,"Ġfr":1491,"ĠInd":1492,"velop":1493,"ee":1494,"ma":1495,"Ġbro":1496,"Ġhouse":1497,"ĠPersonX":1498,"ohn":1499,"tain":1500,"Ġevent":1501,"ĠCl":1502,"ĠOn":1503,"atisfied":1504,"Ġplants":1505,"Ġfamily":1506,"Ġrepl":1507,"ĠPick":1508,"avor":1509,"à©":1510,"apan":1511,"ute":1512,"ĠMr":1513,"Ġcause":1514,"Ġstar":1515,"Ġrun":1516,"oman":1517,"áŀ":1518,"be":1519,"alth":1520,"ize":1521,"Ġ9":1522,"Ġtest":1523,"Ġcur":1524,"Ġobject":1525,"Ġmar":1526,"ĠSp":1527,"wards":1528,"ãĢ":1529,"ines":1530,"Ġmiss":1531,"Ġrain":1532,"Ġsomeone":1533,"Ġconsid":1534,"omes":1535,"Ġstatement":1536,"Ġgenerated":1537,"Ġput":1538,"Ġanother":1539,"iver":1540,"àµį":1541,"Ġimpacting":1542,"ted":1543,"self":1544,"cy":1545,"olog":1546,"Ġstudents":1547,"ÙĬ":1548,"Ġmed":1549,"Ġlet":1550,"ock":1551,"Ġgu":1552,"Ġterm":1553,"Ġoften":1554,"Ġlearn":1555,"Ġwee":1556,"Ġtem":1557,"Ġ198":1558,"Ġborn":1559,"Ġnumbers":1560,"àº":1561,"Ġsw":1562,"Ġdevelop":1563,"Ġanimals":1564,"ley":1565,"ange":1566,"ters":1567,"ossible":1568,"xide":1569,"Ġcarbon":1570,"Ġpress":1571,"Ġfriends":1572,"ier":1573,"till":1574,"ested":1575,"my":1576,"Ġinstance":1577,"Ġlung":1578,"ĠBased":1579,"Ġdidn":1580,"ream":1581,"tiv":1582,"Ġheat":1583,"ĠHead":1584,"ĠProduct":1585,"Ġes":1586,"othes":1587,"ene":1588,"cks":1589,"Ġfun":1590,"ĠAd":1591,"ving":1592,"ĠDoes":1593,"Ġfour":1594,"Ġinte":1595,"idd":1596,"Ġfoot":1597,"ains":1598,"Ġlove":1599,"à¤¿":1600,"Ġtry":1601,"Ġbeg":1602,"Ġlead":1603,"Ġacid":1604,"orth":1605,"ĠBio":1606,"Ġfin":1607,"Ġhard":1608,"Ġgoing":1609,"eng":1610,"ĠJapan":1611,"ĠTeacher":1612,"ĠSe":1613,"aving":1614,"Ġsitu":1615,"ls":1616,"Ġwent":1617,"Ġstore":1618,"udent":1619,"Ġcauses":1620,"Ġint":1621,"Ġline":1622,"Ġfavor":1623,"Ġmakes":1624,"iment":1625,"ulti":1626,"Ġatt":1627,"ax":1628,"urch":1629,"ioxide":1630,"Problem":1631,"Ġ0":1632,"Ġrequ":1633,"ized":1634,"Ġchoice":1635,"attering":1636,"Ġsaid":1637,"Ġgive":1638,"ĠWhy":1639,"Ġoccur":1640,"erc":1641,"omething":1642,"ities":1643,"Ġdist":1644,"Ġà°":1645,"ording":1646,"Ã©":1647,"enn":1648,"ane":1649,"rop":1650,"ĠSo":1651,"ĠSolve":1652,"Ġmove":1653,"Ġ197":1654,"Ġhappen":1655,"Teacher":1656,"hest":1657,"ints":1658,"Ġlevel":1659,"Student":1660,"Ġexample":1661,"Ġ:":1662,"ĠWhere":1663,"Ġwhy":1664,"Solution":1665,"Ġown":1666,"ĠDefinition":1667,"gether":1668,"Ġsong":1669,"Ġreply":1670,"ently":1671,"ĠBl":1672,"ctive":1673,"Ġdioxide":1674,"Ġuser":1675,"Ġchoices":1676,"Ġà¤ķ":1677,"cep":1678,"Ġsepar":1679,"à¥Ģ":1680,"ont":1681,"Ġmil":1682,"Ġlabel":1683,"co":1684,"let":1685,"Ġnear":1686,"].":1687,"fl":1688,"Ġmain":1689,"Ġmulti":1690,"ands":1691,"Ġexp":1692,"Ġ_":1693,"aced":1694,"Ġsound":1695,"Ġresp":1696,"ym":1697,"ital":1698,"Ġteam":1699,"ision":1700,"Ġtogether":1701,"Ġexper":1702,"Ġelement":1703,"ĠAmerican":1704,"Ġgame":1705,"Ġeas":1706,"iversity":1707,"ness":1708,"Ġsal":1709,"Ġthings":1710,"Ġquestions":1711,"Ġreasonable":1712,"?\",":1713,"×Ļ":1714,"Ġaway":1715,"ither":1716,"Ġrocks":1717,"ality":1718,"à¤¨":1719,"Ġvol":1720,"ower":1721,"Ġstill":1722,"Ġbecome":1723,"Ġlarge":1724,"Ġeat":1725,"Ġarea":1726,"ield":1727,"à¤¤":1728,"Ġsomething":1729,"Ġour":1730,"Ġrock":1731,"ever":1732,"vail":1733,"ĠTw":1734,"ĠSome":1735,"Ġusing":1736,"Ġnational":1737,"à¤Ĥ":1738,"Ġsever":1739,"ible":1740,"ered":1741,"Ġpick":1742,"Ġred":1743,"ER":1744,"ery":1745,"Ġwind":1746,"ĠEar":1747,"uck":1748,"ĠJapanese":1749,"ĠAt":1750,"ĠJohn":1751,"augh":1752,"Ġpower":1753,"ĠBu":1754,"IN":1755,"Ġbus":1756,"ures":1757,"Ġreviews":1758,"Ø³":1759,"Ġdiss":1760,"Ġclassify":1761,"Ġcountry":1762,"Ġwond":1763,"Ġheard":1764,"ĠChoose":1765,"ones":1766,"Ġbought":1767,"ann":1768,"Ġinc":1769,"Ġhighest":1770,"ground":1771,"Ġlungs":1772,"fic":1773,"Ġsenti":1774,"uary":1775,"ived":1776,"Ġ''":1777,"osphere":1778,"Ġfootball":1779,"Ġgir":1780,"Ġroom":1781,"Ġcharacter":1782,"Ġmag":1783,"ĠTail":1784,"une":1785,"Ġbooks":1786,"Ú©":1787,"Ġcust":1788,"Ġcolle":1789,"Ġsubject":1790,"Ġpressure":1791,"ison":1792,"omer":1793,"Ġconvers":1794,"ãģ®":1795,"ĠWho":1796,"ope":1797,"Ġoriginal":1798,"vailable":1799,"aj":1800,"ÃŃ":1801,"ross":1802,"ĠCom":1803,"ĠØ¨":1804,"ĠÙħ":1805,"Ġmonth":1806,"Ġmention":1807,"ished":1808,"ĠPossible":1809,"Ġatm":1810,"ii":1811,"Ġteacher":1812,"anish":1813,"Ġsugg":1814,"Ġadv":1815,"Ġdecrease":1816,"Ġtemper":1817,"lor":1818,"Ġrate":1819,"ĠFr":1820,"000":1821,"press":1822,"oint":1823,"pothes":1824,"Ġcre":1825,"Ġfree":1826,"Ġpub":1827,"alse":1828,"Ġhot":1829,"Ġbad":1830,"Ġdoesn":1831,"Ġearth":1832,"Ġreleased":1833,"pothesis":1834,"ead":1835,"ress":1836,"Ġmem":1837,"âĢĵ":1838,"Ġweek":1839,"lu":1840,"Ġ195":1841,"Ġchildren":1842,"ds":1843,"×ķ":1844,"Ġ12":1845,"Ġsentiment":1846,"Ġequ":1847,"ems":1848,"Ġchem":1849,"Ġchanges":1850,"Ġhour":1851,"Ġsun":1852,"Ġcare":1853,"Ġmater":1854,"Ġprop":1855,"Ġperform":1856,"Ġsurf":1857,"iddle":1858,"II":1859,"yl":1860,"ries":1861,"Ġexerc":1862,"Ġsoil":1863,"Ġer":1864,"ids":1865,"ney":1866,"Ġwar":1867,"vern":1868,"Ġfull":1869,"ared":1870,"cle":1871,"Ġid":1872,"Ġmother":1873,"à¤¯":1874,"Ġbelie":1875,"ner":1876,"und":1877,"Ġlittle":1878,"19":1879,"Ġyes":1880,"Ġ15":1881,"Ġhere":1882,"ĠMay":1883,"ĠItal":1884,"à¯į":1885,"ĠEarth":1886,"thing":1887,"Ġtre":1888,"Ġgues":1889,"ĠUnited":1890,"me":1891,"Ġseveral":1892,"Ġsol":1893,"ĠPl":1894,"ists":1895,"Ġpoll":1896,"amer":1897,"not":1898,"ired":1899,"less":1900,"Ġegg":1901,"Ġplayed":1902,"sep":1903,"Ġ196":1904,"Tr":1905,"ok":1906,"Ġice":1907,"Ġve":1908,"ĠMar":1909,"Ġreac":1910,"cept":1911,"Ġindirect":1912,"ĠNote":1913,"Ġmentioned":1914,"'ve":1915,"ium":1916,"ury":1917,"ĠGr":1918,"Ġtyp":1919,"Ġ&":1920,"Ġhealth":1921,"ĠOne":1922,"Ġbreak":1923,"ĠTwo":1924,"Ġsince":1925,"read":1926,"ĠGener":1927,"Ġtrave":1928,"Ġconversation":1929,".,":1930,"27":1931,"ĠAfter":1932,"ulation":1933,"Ġpresented":1934,"joy":1935,"ister":1936,"Ġsign":1937,"ots":1938,"Ġprote":1939,"Ġrad":1940,"Ġgoes":1941,"rodu":1942,"à¦¾":1943,"Ġfive":1944,"Ġyoung":1945,"Ġwithout":1946,"Ġusually":1947,"Ġcurr":1948,"ĠSpanish":1949,"ient":1950,"uro":1951,"Ġwarm":1952,"ives":1953,"Ġexpl":1954,"Ġexpect":1955,"Ġwanted":1956,"Ġdeterm":1957,"Ġatmosphere":1958,"Ġreal":1959,"no":1960,"Ġcontin":1961,"ediment":1962,"Ġdiv":1963,"Ġprof":1964,"bo":1965,"Ġà´":1966,"by":1967,"ĠEx":1968,"Ġtimes":1969,"Ġstudied":1970,"Ġbuying":1971,"ĠCar":1972,"ately":1973,"Ġvalue":1974,"Ġnight":1975,"ĠAm":1976,"Ġappe":1977,"ik":1978,"Ġfar":1979,"Ġaction":1980,"Ġgets":1981,"Ġautom":1982,"Ġnever":1983,"Ġpost":1984,"Ġsituation":1985,"Ġposition":1986,"Ġdecide":1987,"Ġ<":1988,"the":1989,"ĠPar":1990,"ump":1991,"tical":1992,"hor":1993,"ris":1994,"Ġfall":1995,"Ġpie":1996,"iron":1997,"ulate":1998,"Ġsure":1999,"Ġopen":2000,"Ġeng":2001,"Ġrecord":2002,"ires":2003,"Ġuntil":2004,"à±į":2005,"Ġspecies":2006,"ches":2007,"Ġ?":2008,"Ġ`":2009,"Ġlik":2010,"ĠBuild":2011,"Ġnon":2012,"Ġ194":2013,"Ġstudy":2014,"yes":2015,"ĠZ":2016,"Ġsays":2017,"Ġchange":2018,"Ġaccording":2019,"Ġrefers":2020,"uct":2021,"yd":2022,"Ġinflu":2023,"Ġguess":2024,"Ġsci":2025,"Ġdep":2026,"Ġsuit":2027,"oci":2028,"Ġelements":2029,"ober":2030,"Ġenough":2031,"Ġkey":2032,"OR":2033,"bre":2034,"Ġcase":2035,"Ġkind":2036,"Ġhypothesis":2037,"Ġlowest":2038,"Ġmissing":2039,"ĠItalian":2040,"cu":2041,"uel":2042,"Ġburn":2043,"Ġ17":2044,"Ġhead":2045,"Ġsurface":2046,"True":2047,"Ġwatch":2048,"inese":2049,"Ġbeh":2050,"Ġvar":2051,"False":2052,"ov":2053,"Ġtone":2054,"aster":2055,"Ġthought":2056,"iving":2057,"ĠPol":2058,"Ġexercise":2059,"amm":2060,"Ġvis":2061,"à«ĩ":2062,"cepts":2063,"Ġprovided":2064,"athe":2065,"âĢĻ":2066,"ĠStates":2067,"ifying":2068,"Ġautomatic":2069,"alf":2070,"Ġlos":2071,"Ġcustomer":2072,"bs":2073,"ĠAust":2074,"Ġinside":2075,"Ġclean":2076,"20":2077,"ument":2078,"Ġtemperature":2079,"Given":2080,"light":2081,"Ġwoman":2082,"uly":2083,"Ġrece":2084,"Ġheart":2085,"Ġhappy":2086,"Ġlower":2087,"cent":2088,"what":2089,"Ø¨":2090,"ĊĊ":2091,"Ġcontains":2092,"Ġexperi":2093,"com":2094,"Ġvir":2095,"ization":2096,"Ġsupport":2097,"Ġtalk":2098,"Ġcat":2099,"acks":2100,"Ġeither":2101,"à¤ķ":2102,"ĠChinese":2103,"Ġenjoy":2104,"Ġlocated":2105,"gar":2106,"side":2107,"Ġdise":2108,"ident":2109,"Ġcomput":2110,"Ġhigher":2111,"Ġseason":2112,"uss":2113,"Ġworks":2114,"Ġseparated":2115,"Ġ*":2116,"ĠJan":2117,"Ġleast":2118,"Ġmeaning":2119,"ĠShould":2120,"ĠAll":2121,"Ġconve":2122,"Ch":2123,"Ã³":2124,"Ġever":2125,"Ġtook":2126,"AL":2127,"You":2128,"Ġtot":2129,"Ġgas":2130,"Ġla":2131,"Ġbecomes":2132,"Ġimport":2133,"×ķ×":2134,"Ġ``":2135,"ĠPort":2136,"igure":2137,"ilar":2138,"Ġcorrectly":2139,"Ġsum":2140,"Ġsediment":2141,"Ġdog":2142,"ica":2143,"Ġgen":2144,"Ġlikely":2145,"Ġlive":2146,"Ġarr":2147,"Ġpoints":2148,"Ġplaying":2149,"Ġslow":2150,"ĠØ§ÙĦ":2151,"Ġlay":2152,"cean":2153,"ĠClass":2154,"ron":2155,"Ġtakes":2156,"iness":2157,"Ġimage":2158,"×Ļ×":2159,"Ġgirl":2160,"go":2161,"line":2162,"Ã¡":2163,"Ġball":2164,"Ġselect":2165,"Ġcomplex":2166,"tity":2167,"Ġseries":2168,"ait":2169,"gle":2170,"Ġ+":2171,"Ġstand":2172,"Ġothers":2173,"à¦°":2174,"Ġdescribe":2175,"Ġinvol":2176,"urope":2177,"Ġcool":2178,"Ġboy":2179,"Ġgovern":2180,"Ġorganism":2181,"Ġfish":2182,"Ġoper":2183,"Ġelectric":2184,"Ġhand":2185,"Ġconver":2186,"Ġshop":2187,"Ġvalidate":2188,"Ġverifying":2189,"ĠSuggested":2190,"que":2191,"ĠÐ":2192,"Ġste":2193,"Ġà®":2194,"Ġweight":2195,"Ġreading":2196,"Ġnames":2197,"iet":2198,"Ġfre":2199,"Ġfinal":2200,"room":2201,"rown":2202,"ex":2203,"Ġmatter":2204,"Ġreplaced":2205,"10":2206,"ae":2207,"Ġ)":2208,"Ġsatisfied":2209,"Ġpred":2210,"hy":2211,"acy":2212,"ession":2213,"Ġconf":2214,"Ġinterest":2215,"inning":2216,"\"?":2217,"Ġallow":2218,"udd":2219,"Ġbackground":2220,"Ġearly":2221,"Ġdetermine":2222,"Ġwon":2223,"Ġstop":2224,"ĠQu":2225,"Ġpark":2226,"Ġactiv":2227,"ajor":2228,"con":2229,"Ġbul":2230,"Ġmark":2231,"ĠThese":2232,"ĠPer":2233,"ime":2234,"ON":2235,"ows":2236,"oogle":2237,"Ġphrases":2238,"Ġcard":2239,"Ġfather":2240,"Ġbed":2241,"ores":2242,"ĠHis":2243,"Ġagainst":2244,"Ġpair":2245,"Ġthir":2246,"cap":2247,"Ġpack":2248,"Ġhaving":2249,"cles":2250,"àŃ":2251,"Ġdig":2252,"Ġcontro":2253,"Ġstrong":2254,"Ġidenti":2255,"ator":2256,"Ġwalk":2257,"Ġproduced":2258,"Ġwood":2259,"Ġparents":2260,"Ġphrase":2261,"Ġjud":2262,"ĠArab":2263,"Ġincreases":2264,"Ġwondering":2265,"ertain":2266,"Ġground":2267,"Ġsingle":2268,"Ġsuitable":2269,"Ġconvey":2270,"Ġtop":2271,"ĠAdd":2272,"Ġimportant":2273,"iam":2274,"utes":2275,"ĠGreat":2276,"oor":2277,"Ġwaves":2278,"icate":2279,"Ġrefer":2280,"Ġcond":2281,"Ġchances":2282,"Ġproposed":2283,"ech":2284,"Ġable":2285,"Ġcame":2286,"Ġhist":2287,"ĠGerm":2288,"Ġris":2289,"rench":2290,"Ġparty":2291,"Ġprovide":2292,"Ġauthor":2293,"nt":2294,"vice":2295,"Ġpain":2296,"ilt":2297,"olute":2298,"Ġrelated":2299,"Ġemo":2300,"Ġdays":2301,"raphy":2302,"ĠPortug":2303,"ES":2304,"vo":2305,"alog":2306,"ĠTH":2307,"Ġnice":2308,"aper":2309,"Ġdef":2310,"à°¿":2311,"Ġfavorable":2312,"15":2313,"Ġcall":2314,"Ġhalf":2315,"ĠTo":2316,"tically":2317,"ĠLe":2318,"Ġprev":2319,"Ġspecific":2320,"Ġdirectly":2321,"à¹":2322,"Ġmill":2323,"Ġtown":2324,"Ġdam":2325,"ĠOption":2326,"Ġsimilar":2327,"Ġbox":2328,"rey":2329,"Ġtrue":2330,"xtract":2331,"Ġcannot":2332,"àª°":2333,"à§ĩ":2334,"Ġcour":2335,".\",":2336,"fy":2337,"ole":2338,"ĠRob":2339,"à¥ĭ":2340,"à°¾":2341,"ĠÙĪ":2342,"ĠPersonY":2343,"Ġabsor":2344,"Ġdepic":2345,"ried":2346,"Ġweather":2347,"Ġblack":2348,"pres":2349,"igned":2350,"Ġmajor":2351,"Ġlater":2352,"Ġ13":2353,"ĠOther":2354,"Ġbecame":2355,"ĠX":2356,"Ġfer":2357,"Ġtopic":2358,"ott":2359,"aces":2360,"Ġprob":2361,"Ġtwe":2362,"aur":2363,"Ġest":2364,"Ġpan":2365,"ctor":2366,"Ġ14":2367,"Ġaccepts":2368,"Ġpoli":2369,"Ġparticip":2370,"Ġdra":2371,"finite":2372,"Ġconsidering":2373,"ength":2374,"Ġhours":2375,"most":2376,"Ġwr":2377,"Ġwaste":2378,"Ġsport":2379,"AM":2380,"ival":2381,"rict":2382,"Ġlooking":2383,"azon":2384,"Ġstarted":2385,"à¤²":2386,"ules":2387,"Ġgeneral":2388,"ugust":2389,"Ġpot":2390,"Ġclub":2391,"ensive":2392,"Ġformed":2393,"Ġdescribing":2394,"Ġsuggestion":2395,"work":2396,"ï¼":2397,"Ġson":2398,"Ġtoday":2399,"ĠGoogle":2400,"Ġenv":2401,"ken":2402,"Ġpen":2403,"ics":2404,"abor":2405,"Ġimm":2406,"Ġspeak":2407,"Ġquality":2408,"ĠSuggestion":2409,"Ġabsolute":2410,"Ġtotal":2411,"ched":2412,"Ġ16":2413,"tics":2414,"orning":2415,"à«į":2416,"oll":2417,"ring":2418,"Ġcold":2419,"Ġbas":2420,"Ġlaw":2421,"ipp":2422,"Ġbase":2423,"ĠWor":2424,"ĠCD":2425,"rip":2426,"Ġcomplete":2427,"Ġamount":2428,"Ġrelations":2429,"Ġrequires":2430,"30":2431,"Ġ11":2432,"Ġability":2433,"Ø§Ø":2434,"ctions":2435,"gers":2436,"ning":2437,"sh":2438,"Ġland":2439,"Ġdoing":2440,"rite":2441,"Ġliving":2442,"Ġbrother":2443,"Ġdissatisfied":2444,"ĠÚ©":2445,"Ġcy":2446,"Ġpast":2447,"amed":2448,"ĠGal":2449,"Ġ30":2450,"Ġinfluence":2451,"iod":2452,"ĠAlex":2453,"ĠUS":2454,"Th":2455,"oes":2456,"Ġfield":2457,"Ġpurch":2458,"Ġproper":2459,"ãģĹ":2460,"ĠChina":2461,"à´¿":2462,"Ġspecial":2463,"Ġpopulation":2464,"Ġtrees":2465,"ony":2466,"Ġsaw":2467,"Ġsize":2468,"Ġnovel":2469,"Ġcover":2470,"Ġgluc":2471,"Ġassoci":2472,"ology":2473,"ĠArabic":2474,"can":2475,"Ġworking":2476,"Ġelse":2477,"Ġbelieve":2478,"Ġdepicts":2479,"finitely":2480,"cing":2481,"ny":2482,"Ġann":2483,"Ġcut":2484,"Ġbat":2485,"Ġmorning":2486,"Ġisland":2487,"Ġheight":2488,"Ġgreen":2489,"Ġband":2490,"Ġmiddle":2491,"ĠPe":2492,"ief":2493,"Ġsuc":2494,"ĠExtract":2495,"Ġthing":2496,"ician":2497,"Ġgave":2498,"Ġ25":2499,"unch":2500,"'ll":2501,"Ġcook":2502,"Ġpict":2503,"cell":2504,"ults":2505,"Ġexpress":2506,"Ġuniversity":2507,"Ġgetting":2508,"Ġcost":2509,"Ġforms":2510,"racted":2511,"Ġpublic":2512,"gest":2513,"ha":2514,"ye":2515,"Ġthough":2516,"ctober":2517,"ĠWater":2518,"thern":2519,"acter":2520,"Ġtele":2521,"ude":2522,"Ġneeded":2523,"Ġcharacters":2524,"times":2525,"ironment":2526,"min":2527,"apor":2528,"Ġmonths":2529,"che":2530,"mit":2531,"ague":2532,"Ġsea":2533,"ends":2534,"Ġevents":2535,"Ġflattering":2536,"à³":2537,"leep":2538,"Ġmaking":2539,"oms":2540,"ĠBrit":2541,"Ġunfl":2542,"Ġunflattering":2543,"Pick":2544,"iation":2545,"inc":2546,"Ġpat":2547,"Ġmass":2548,"ĠCol":2549,"ĠØ¯":2550,"Ġparticles":2551,"Ġlate":2552,"ills":2553,"ĠMary":2554,"Ġpoint":2555,"Ġphys":2556,"à§į":2557,"ĠPolish":2558,"Ġprobab":2559,",\"":2560,"rating":2561,"Ġsour":2562,"Ġdie":2563,"omen":2564,"ĠGre":2565,"ush":2566,"ãģŁ":2567,"ured":2568,"Ø§ÙĨ":2569,"Ġsym":2570,"ised":2571,"Ġcir":2572,"Ġge":2573,"Ġcomes":2574,"ĠLee":2575,"Ġprice":2576,"ior":2577,"Ġide":2578,"ĠThen":2579,"Ġmel":2580,"Ġnothing":2581,"Ġleaves":2582,"Ġskin":2583,"\"\"":2584,"Ġside":2585,"Ġocean":2586,"Ġmount":2587,"ified":2588,"ĠNorth":2589,"Ġalong":2590,"ĠFrench":2591,"Ġparts":2592,"Ġà¤¸":2593,"Ġenti":2594,"Ġcoal":2595,"Ġbird":2596,"Ġclear":2597,"Ġpollution":2598,"ĠGenerate":2599,"PT":2600,"but":2601,"Ġter":2602,"Ġang":2603,"oli":2604,"Ġsex":2605,"ĠEurope":2606,"Ġamong":2607,"Ġperiod":2608,"Ġenvironment":2609,"Ġbab":2610,"Ġarg":2611,"Ġafterwards":2612,"Ġphot":2613,"Ġfur":2614,"Ġvide":2615,"ĠEX":2616,"Ġnews":2617,"graphy":2618,"ling":2619,"rad":2620,"son":2621,"Ġden":2622,"ĠCount":2623,"ĠGu":2624,"Ġpoor":2625,"Ġrelationship":2626,"Ġstay":2627,"ãģ§":2628,"Ġeggs":2629,"Ġcomputer":2630,"ency":2631,"Ġcop":2632,"Ġlim":2633,"Ġque":2634,"Ġplaus":2635,"ĠNe":2636,"ending":2637,"avy":2638,"àª¨":2639,"....":2640,"Ġincluding":2641,"wh":2642,"ĠSk":2643,"Ġitems":2644,"ĠDon":2645,"ãĢģ":2646,"']":2647,"Op":2648,"Ġfuel":2649,"Ġgif":2650,"ĠMo":2651,"ãģĦ":2652,"rist":2653,"ret":2654,"Ġsuper":2655,"Ġworth":2656,"Ġleg":2657,"ãģ¯":2658,"Ġproducts":2659,"Ġclose":2660,"ential":2661,"Ġsmaller":2662,"Ġlevels":2663,"Ġcollege":2664,"athered":2665,"Ġtweet":2666,"Question":2667,"Ġtable":2668,"esse":2669,"ĠTom":2670,"Ġprogr":2671,"Ġmole":2672,"tember":2673,"aining":2674,"Ġproduce":2675,"ãģ«":2676,"à¨¾":2677,"Ġquick":2678,"Ġsubst":2679,"ĠAsh":2680,"Ġidentify":2681,"How":2682,"mise":2683,"ana":2684,"ĠCould":2685,"tem":2686,"Ġoutside":2687,"Ġcommun":2688,"Ġcollect":2689,"Ġelabor":2690,"Ġmembers":2691,"Ġprofession":2692,"iction":2693,"ĠAir":2694,"Ġrelease":2695,"omin":2696,"Ġstates":2697,"Ġplan":2698,"indi":2699,"Ġapart":2700,"Ġexpected":2701,"Ġbullet":2702,"iti":2703,"ada":2704,"Ġrelig":2705,"Ġsalt":2706,"present":2707,"Ġgathered":2708,"à¤µ":2709,"oles":2710,"Ġbiography":2711,"ĠAmazon":2712,"use":2713,"Ġeff":2714,"Ġprac":2715,"Ġproblems":2716,"Ġvirus":2717,"itions":2718,"ration":2719,"year":2720,"Ġwait":2721,"ĠCamer":2722,"Ġforce":2723,"ĠForm":2724,"Ġdecided":2725,"Ġminutes":2726,"Ġsongs":2727,"Ġelaborate":2728,"AR":2729,"bly":2730,"ĠTV":2731,"à¤®":2732,"apped":2733,"Ġwhole":2734,"Ġcountries":2735,"Ġrespon":2736,"INAL":2737,"Ġlikes":2738,"ĠAddison":2739,"ĠEXAM":2740,"Ø¹":2741,"asing":2742,"Ġdel":2743,"cially":2744,"Ġsimple":2745,"Ġvolcan":2746,"ĠClassify":2747,"Ġemotion":2748,"Ġsuccess":2749,"af":2750,"Ð¾":2751,"ÙĤ":2752,"ined":2753,"Ġbar":2754,"à¤¸":2755,"ersian":2756,"auti":2757,"Ġplayer":2758,"Ġanything":2759,"Ġdisease":2760,"ĠGalician":2761,"na":2762,"nect":2763,"tice":2764,"aring":2765,"rogen":2766,"ume":2767,"Ġà¬":2768,"ĠThat":2769,"Ġuses":2770,"ordan":2771,"AS":2772,"Ġgames":2773,"ode":2774,"ples":2775,"Ġspace":2776,"Ġ2012":2777,"Ġcurrent":2778,"Ġcontrol":2779,"bine":2780,"oe":2781,"wood":2782,"Ð°":2783,"Ġavailable":2784,"Ġlog":2785,"ĠHer":2786,"Ġmod":2787,"ĠFigure":2788,"appoint":2789,"Ġagree":2790,"Ġtypes":2791,"Se":2792,"Ġsam":2793,"Ġdest":2794,"Ġstars":2795,"though":2796,"asket":2797,"Ġformer":2798,"Ġinstead":2799,"18":2800,"ming":2801,"ino":2802,"aries":2803,"Ġlost":2804,"Ġtrip":2805,"ãģ¨":2806,"à¦¿":2807,"Ġswim":2808,"Ġvers":2809,"Ġcup":2810,"astic":2811,"Ġsocial":2812,"Ġacross":2813,"Ġoffic":2814,"ĠMaybe":2815,"direct":2816,"oke":2817,"oud":2818,"cember":2819,"Ġwhite":2820,"ĠOr":2821,"ledge":2822,"Ġcentury":2823,"Ġintegers":2824,"ĠCameron":2825,"25":2826,"lished":2827,"tr":2828,"Ġpur":2829,"ivid":2830,"ĠWar":2831,"ĠSchool":2832,"Ġsell":2833,"Ġamer":2834,"Ġeasy":2835,"Ø²":2836,"reet":2837,"Ġmi":2838,"ĠGe":2839,"ĠDV":2840,"Ġdoctor":2841,"ained":2842,"endall":2843,"Ġmuscles":2844,"ĠTrans":2845,"Ġgreater":2846,"Ġoccurs":2847,"Ġglucose":2848,")?":2849,"Ġwall":2850,"Ġbreat":2851,"à¤¹":2852,"chn":2853,"Ġdeep":2854,"Ġlisten":2855,"à¦¨":2856,"Ġneeds":2857,"Ġconsidered":2858,"aughter":2859,"Ġmaterial":2860,"Ġparticipants":2861,"It":2862,"of":2863,"por":2864,"uff":2865,"Ġage":2866,"ote":2867,"iding":2868,"Ġvi":2869,"ubrey":2870,"Ġsurv":2871,"resp":2872,"Ġasked":2873,"___":2874,"brew":2875,".\".":2876,"OT":2877,"Ġhor":2878,"ĠSouth":2879,"ĠBudd":2880,"ailey":2881,"ĠHowever":2882,"Ġinclude":2883,"Ġletter":2884,"Ġorganisms":2885,"Ġinteresting":2886,"'d":2887,"AT":2888,"bor":2889,"bed":2890,"tt":2891,"Ø´":2892,"Ġnor":2893,"aged":2894,"Ġmember":2895,"asha":2896,"fort":2897,"yn":2898,"ĠGree":2899,"choice":2900,"Ġplays":2901,"à°¨":2902,"Ġgrand":2903,"Ġflow":2904,"ĠWorld":2905,"ials":2906,"ĠâĢ":2907,"Ġsouth":2908,"Ġfast":2909,"Ġhair":2910,"Ġonce":2911,"ĠPr":2912,"Ġalmost":2913,"Ġbuilt":2914,"Ġwriting":2915,"inner":2916,"Ġoccup":2917,"Ġhappened":2918,"Ġreceived":2919,"Ġgovernment":2920,"Ġfrequ":2921,"ĠRobin":2922,"11":2923,"hold":2924,"Ġet":2925,"ĠPh":2926,"Ġfoss":2927,"ĠHebrew":2928,"Ø§Ø±":2929,"arson":2930,"ãĢĤ":2931,"Ġmagma":2932,"ĠPeople":2933,"ians":2934,"ze":2935,"istic":2936,"Ġlength":2937,"à±ģ":2938,"Ġlocal":2939,"Ġfossil":2940,"ges":2941,"Ġfire":2942,"Ġpay":2943,"Ġmach":2944,"Ġbegan":2945,"Ġconnect":2946,"unk":2947,"à°°":2948,"!!!!":2949,"Ġextra":2950,"Ġvideo":2951,"ĠDVD":2952,"cil":2953,"cause":2954,"Ġâĺħ":2955,"Ġâĺħâĺħ":2956,"ĠHindi":2957,"Ġ(âĺħ":2958,"Ġkid":2959,"ĠJordan":2960,"Ġsold":2961,"Ġclim":2962,"Ġdialog":2963,"âĺħâĺħâĺħ":2964,"ĠPerturbation":2965,"Ġâĺħ-":2966,"Ġâĺħâĺħâĺħâĺħâĺħ":2967,"lo":2968,"Ġsix":2969,"Ġbasket":2970,"ural":2971,"ulf":2972,"Ġmeet":2973,"els":2974,"Ġstudent":2975,"Ġindivid":2976,"Ġcaused":2977,"ĠQuinn":2978,"×Ķ":2979,"ination":2980,"Ġtowards":2981,"Ġredu":2982,"Ġsugar":2983,"oph":2984,"Ġkil":2985,"abet":2986,"Ġcorresp":2987,"ĠKing":2988,"ĠKendall":2989,"Ġwants":2990,"à«Ģ":2991,"Ġlargest":2992,"Options":2993,"Ġcorrespond":2994,"Ø©":2995,"Ġmouth":2996,"Ġtold":2997,"ĠAubrey":2998,"utri":2999,"ĠSyd":3000,"ĠEm":3001,"ĠJim":3002,"ãģª":3003,"Ġpron":3004,"avid":3005,"Ġà¤®":3006,"à°²":3007,"bruary":3008,"ĠFacts":3009,"ĠFormulate":3010,"ij":3011,"Ġtree":3012,"atory":3013,"ators":3014,"orge":3015,"ama":3016,"ĠBailey":3017,"ored":3018,".\"?":3019,"Ġdrink":3020,"Ġintern":3021,"Ġlonger":3022,"Ġreprodu":3023,"ler":3024,"like":3025,"ply":3026,"Ġdone":3027,"ros":3028,"ĠCarson":3029,"ĠJack":3030,"aken":3031,"Ġknowledge":3032,"Ġincor":3033,"autiful":3034,"ĠSydney":3035,"--":3036,"Ġnorth":3037,"Ġreach":3038,"eter":3039,"ounds":3040,"ãģ¦":3041,"Ġpossi":3042,"Ġà¤ª":3043,"ãĤĴ":3044,"à¯ģ":3045,"Ġthird":3046,"13":3047,"aim":3048,"Ġanti":3049,"Ġfarm":3050,"rible":3051,"abel":3052,"Ġdisc":3053,"Ġliver":3054,"Ġgrowth":3055,"Ġindirectly":3056,"fect":3057,"Ġfat":3058,"ĠPersian":3059,"ffee":3060,"Ġscale":3061,"Ġ['":3062,"Ġextracted":3063,"Ġbehind":3064,"17":3065,"Sentence":3066,"ms":3067,"Ġill":3068,"ĠWith":3069,"ĠSasha":3070,"ĠFINAL":3071,"Ġchemical":3072,"ĠGerman":3073,"Select":3074,"60":3075,"Ġsleep":3076,"Ġmix":3077,"Ġep":3078,"ĠPres":3079,"ĠØª":3080,"Ġappro":3081,"Ġelectricity":3082,"This":3083,"Ġpronoun":3084,"Ġswe":3085,"eds":3086,"ams":3087,"umb":3088,"aven":3089,"Ġworked":3090,"ryst":3091,"Ġago":3092,"Ġorigin":3093,"Ġreplace":3094,"Ġstarts":3095,"&#":3096,"Ðµ":3097,"ĠSte":3098,"Ġloved":3099,"Ġpiece":3100,"Ġloss":3101,"conom":3102,"Ġmolec":3103,"late":3104,"Ġaver":3105,"Ġcheck":3106,"Ġelectr":3107,"Ġenters":3108,"acteria":3109,"vision":3110,"with":3111,"Ġsand":3112,"ata":3113,"Ġcreat":3114,"ĠWill":3115,"ĠWrite":3116,"Ġà¤¹":3117,"Ġmillion":3118,"where":3119,"Ð¸":3120,"inks":3121,"Ġrepresent":3122,"umin":3123,"rought":3124,"Ġ2010":3125,"Ġhyd":3126,"Ġinteger":3127,"ĠCombine":3128,"Ġappear":3129,"ĠBritish":3130,"Ġtreat":3131,"Ġbit":3132,"aps":3133,"Ġflu":3134,"Ġ50":3135,"à®ķ":3136,"ĠState":3137,"ĠDefinitely":3138,"ully":3139,"name":3140,"uan":3141,"Ġfung":3142,"Ġdue":3143,"Ġhit":3144,"Ġmoved":3145,"ender":3146,"Ġexist":3147,"play":3148,"Ġfloor":3149,"Ġtravel":3150,"cellent":3151,"Ġquickly":3152,"yle":3153,"Ġcertain":3154,"utral":3155,"aylor":3156,"ĠHint":3157,"Ġ24":3158,"pecially":3159,"aker":3160,"Ġcontent":3161,"Ġdisappoint":3162,"Ġlarger":3163,"Ġhumans":3164,"Ġsinger":3165,"Ġfurther":3166,"je":3167,"Ġbor":3168,"Ġmom":3169,"ara":3170,"Ġiss":3171,"Ġprom":3172,"ĠDan":3173,"key":3174,"Ġcomment":3175,"ãģĮ":3176,"atures":3177,"Ġmiles":3178,"Ġsports":3179,"oon":3180,"Ġtaking":3181,"Ġwave":3182,"Ġoil":3183,"uese":3184,"ĠSm":3185,"Ġforest":3186,"ĠGood":3187,"Ġcomb":3188,"ĠFar":3189,"Ġregion":3190,"Ġbusiness":3191,"void":3192,"ĠÃ":3193,"inter":3194,"anks":3195,"ĠCase":3196,"iel":3197,"Ġmeans":3198,"Ġflower":3199,"Ġlives":3200,"Ġpopular":3201,"],":3202,"ique":3203,"Ùģ":3204,"Ġstom":3205,"Ġitself":3206,"ĠBr":3207,"Ġkids":3208,"Ġfewer":3209,"selves":3210,"ĠUniversity":3211,"ta":3212,"Ġport":3213,"Ġnamed":3214,"ape":3215,"Ġseen":3216,"Ġalph":3217,"pective":3218,"à¥ģ":3219,"àªĤ":3220,"Ġ2006":3221,"Ġservice":3222,"Ġaddition":3223,"Ġrestaur":3224,"Ġvisit":3225,"Ġcorresponding":3226,"vent":3227,"Ġbott":3228,"ales":3229,"ĠCity":3230,"ãĤĭ":3231,"ĠÙĨ":3232,"onsense":3233,"board":3234,"za":3235,"estern":3236,"Ġsister":3237,"Ġbatter":3238,"itar":3239,"Ġhur":3240,"ĠEvery":3241,"Ġprim":3242,"Ġcoffee":3243,"Ġphone":3244,"pril":3245,"Ġtrying":3246,"Ġmultiple":3247,"Ġfreez":3248,"Ġearthqu":3249,"ORE":3250,"Ġassociated":3251,"45":3252,"date":3253,"lf":3254,"Ġfit":3255,"Ġfem":3256,"itary":3257,"arch":3258,"ĠTe":3259,"Ġbeautiful":3260,"Ġstream":3261,"Ġtechn":3262,"Ġexch":3263,"Ġoverall":3264,"ospital":3265,"Ġhistory":3266,"ĠCounty":3267,"Ġamerican":3268,"Ġpossibly":3269,"ĠCasey":3270,"OPT":3271,"bur":3272,"Ġopp":3273,"Ġnorm":3274,"Ġriver":3275,"Ġconcer":3276,"ĠMost":3277,"Ġneigh":3278,"Ġcancer":3279,"Ġblue":3280,"à®¿":3281,"Ġbaby":3282,"ĠBuddh":3283,"Ġaverage":3284,"12":3285,"NA":3286,"house":3287,"Ġgases":3288,"Ġnutri":3289,"omp":3290,"Ġ100":3291,"Ġves":3292,"àª®":3293,"Ġcounty":3294,"Ġbread":3295,"Ġparticular":3296,"ĠPortuguese":3297,"Ġwrong":3298,"Ġetc":3299,"Ġsnow":3300,"Ġdaughter":3301,"Ġharm":3302,"Ġliqu":3303,"iley":3304,"Ġpolice":3305,"Ġtravels":3306,"Ġoccupation":3307,"aul":3308,"á»":3309,"eral":3310,"stream":3311,"ĠSep":3312,"Ġru":3313,"ĠHigh":3314,"Ġseem":3315,"usion":3316,"Ġhowever":3317,"Ġinvolving":3318,"water":3319,"Ġstic":3320,"ati":3321,"Ġcake":3322,"Ġeyes":3323,"ĠComm":3324,"Ġleave":3325,"ĠJames":3326,"Ġresear":3327,"à´¾":3328,"Ġstruct":3329,"Ġreturned":3330,"Ġlearned":3331,"Ġespecially":3332,"Ġbegins":3333,"Ġcreated":3334,"ĠGreen":3335,"Ġincorrect":3336,"35":3337,"ION":3338,"aid":3339,"aff":3340,"ham":3341,"Ġcamp":3342,"anc":3343,"itc":3344,"veoli":3345,"ĠBob":3346,"Ġmov":3347,"Ġmoder":3348,"Ġmoving":3349,"Ġjo":3350,"ended":3351,"ãģĻ":3352,"Ġentity":3353,"ondon":3354,"Ġ2013":3355,"Ġ2014":3356,"Ġremo":3357,"Ġdecreases":3358,"Ġintrodu":3359,"Ġreaction":3360,"Ġradiation":3361,"39":3362,"uous":3363,"Ġ;":3364,"Ġscre":3365,"rel":3366,"Ġbag":3367,"Ġeconom":3368,"Ġyet":3369,"ĠCo":3370,"ĠHum":3371,"Ġtrad":3372,"Ġdoll":3373,"ĠEn":3374,"Ġmeas":3375,"ucle":3376,"ĠRemy":3377,"Ġsometimes":3378,"Ġcommonsense":3379,"Ġbeginning":3380,"ready":3381,"Ġmolecules":3382,"IS":3383,"dd":3384,"de":3385,"ĠâĢĵ":3386,"Ġhost":3387,"ĠSw":3388,"Ġdem":3389,"Ġchair":3390,"ĠChris":3391,"aphr":3392,"ĠĠĠĠĠĠ":3393,"à¨°":3394,"Ġclasses":3395,"Ġdiffic":3396,"Ġactor":3397,"Ġincludes":3398,"Ġrunning":3399,"Ġterms":3400,"ĠBlack":3401,"Ġgift":3402,"cus":3403,"fe":3404,"pg":3405,"Ġview":3406,"Ġsn":3407,"Ġfaster":3408,"ali":3409,"Ġye":3410,"ĠSc":3411,"Ġheld":3412,"ĠJe":3413,"ĠJesse":3414,"ĠChrist":3415,"à´¨":3416,"ĠAmerica":3417,"Choose":3418,"Ġconvert":3419,"Ġactivity":3420,"Ġmarket":3421,"Ġphysical":3422,"ÑĤ":3423,"Ġ#":3424,"Ġaw":3425,"Ġwomen":3426,"Ġbi":3427,"uments":3428,"ĠMORE":3429,"Ġalready":3430,"ĠKai":3431,"Ġgeneric":3432,"Ġthemselves":3433,"Ġbirds":3434,"ulture":3435,"Ġ2009":3436,"Ġcolor":3437,"Ġbegin":3438,"ĠTHE":3439,"ĠTranslate":3440,"Ġmovies":3441,"ping":3442,"Ġtaken":3443,"itation":3444,"Ġmess":3445,"arr":3446,"Ġisn":3447,"ĠKe":3448,"Ġkept":3449,"Ġbrain":3450,"Ġremove":3451,"Ġfavorite":3452,"Ø³Øª":3453,"ESS":3454,"Ġsens":3455,"tian":3456,"Ġmid":3457,"sect":3458,"Ġaligned":3459,"Ġbutter":3460,"ember":3461,"Ġanyone":3462,"Ġ2008":3463,"ĠTracy":3464,"Ġshows":3465,"Ġsunlight":3466,"Ġcareer":3467,"ĠAustral":3468,"Ġprevious":3469,"Ġdialogue":3470,"fric":3471,"vant":3472,"Ùĥ":3473,"Ġ).":3474,"Ġfine":3475,"Ġmat":3476,"Ġreport":3477,"ĠCal":3478,"ĠYork":3479,"Ġimpro":3480,"50":3481,"dom":3482,"round":3483,"reme":3484,"Ġmind":3485,"Ġmatch":3486,"Ġdou":3487,"ety":3488,"ĠNor":3489,"ĠØ³":3490,"Ġgrad":3491,"à´ķ":3492,"Ġdesk":3493,"Ġconsist":3494,"Ġbasketball":3495,"Available":3496,"ED":3497,"fully":3498,"enced":3499,"Ġpaper":3500,"à¤ª":3501,"ĠMin":3502,"ĠNOT":3503,"Ġkill":3504,"elt":3505,"Ġdescribes":3506,"Ġwatching":3507,"Ġpackage":3508,"21":3509,"Con":3510,"Ġtal":3511,"Ġtall":3512,"Ġcoun":3513,"Ġlake":3514,"ĠWind":3515,"ĠSun":3516,"action":3517,"ĠBill":3518,"à¥¤":3519,"àª¤":3520,"Ġ2011":3521,"Ġcaption":3522,"Ġcurrently":3523,"Ġbasic":3524,"ription":3525,"-]":3526,"He":3527,"fact":3528,"ox":3529,"val":3530,"Ġwife":3531,"Ġfly":3532,"ĠTaylor":3533,"ĠAugust":3534,"star":3535,"ĠMany":3536,"Ġtrain":3537,"ĠEl":3538,"Ġcoll":3539,"à¨¿":3540,"sels":3541,"Ġhimself":3542,"Ġcenter":3543,"Ġletters":3544,"Ġpieces":3545,"Ġresponse":3546,"??":3547,"born":3548,"×¨":3549,"Ġ/":3550,"Ġfight":3551,"Ġgives":3552,"stant":3553,"Ġstren":3554,"ĠDr":3555,"ĠNational":3556,"ĠLi":3557,"ables":3558,"cret":3559,"Ġlanguages":3560,"Ġ2007":3561,"mas":3562,"ype":3563,"Ġut":3564,"Ġsick":3565,"icy":3566,"Ġhear":3567,"Ġalveoli":3568,"ãģĭ":3569,"Ġrecy":3570,"Ġ40":3571,"Ġbirthday":3572,"ãĥ¼":3573,"Ġeverything":3574,"Ġchemic":3575,"Ġestab":3576,"Ġexchange":3577,"85":3578,"eth":3579,"Ġtried":3580,"Ġjan":3581,"Ġsoon":3582,"epend":3583,"à¥Ī":3584,"Ġplacehold":3585,"Ġspent":3586,"ĠBecause":3587,"Ġvarious":3588,"Ġrestaurant":3589,"IV":3590,"band":3591,"Äģ":3592,"Ú¯":3593,"Ġhab":3594,"ental":3595,"set":3596,"sequ":3597,"ĠSpe":3598,"ĠFe":3599,"Ġresist":3600,"Ø§ÙĦ":3601,"Ġ×Ķ":3602,"Ġbigger":3603,"Ġmaterials":3604,"ĠAustin":3605,"Ġsummer":3606,"Ġstreng":3607,"tar":3608,"Ġaff":3609,"Ġbacteria":3610,"Ġgard":3611,"ĠAc":3612,"Ġeye":3613,"ĠCent":3614,"ationale":3615,"ĠMan":3616,"ĠRed":3617,"ĠRiley":3618,"Ġalumin":3619,"Ġwebs":3620,"à°Ĥ":3621,"Ġadded":3622,"Ġsource":3623,"Ġdifficult":3624,"uk":3625,"Ġce":3626,"Ġinstr":3627,"Ġdark":3628,"Ġhate":3629,"Ġrationale":3630,"oss":3631,"Ġmoves":3632,"Ġ27":3633,"ĠOh":3634,"Ġkm":3635,"Ġsoft":3636,"Ġunit":3637,"Ġroad":3638,"raft":3639,"Ġdire":3640,"ission":3641,"Ġeasily":3642,"Ġpurchased":3643,"Ġtelevision":3644,"+]":3645,"ps":3646,"pro":3647,"erg":3648,"reg":3649,"Ġwide":3650,"Ġcross":3651,"Ġpri":3652,"asc":3653,"Ġnucle":3654,"ĠWell":3655,"Ġround":3656,"ĠMike":3657,"ploy":3658,"ĠÙĩ":3659,"Ġthroughout":3660,"àµģ":3661,"Ġhelps":3662,"Ġlocation":3663,"Ġverb":3664,"Ġfunction":3665,"Ġfinish":3666,"Ġexpand":3667,"Ġwonder":3668,"Ġdamage":3669,"Ġmodern":3670,"65":3671,">.":3672,"for":3673,"zone":3674,"ÅĤ":3675,"Ġcri":3676,"itch":3677,"Ġstation":3678,"Ġ\"___":3679,"Ġfore":3680,"à¤¦":3681,"apt":3682,"ĠLESS":3683,"Ġdisco":3684,"Ġsynt":3685,"âĢĶ":3686,"Ġobjects":3687,"Ġperforming":3688,"ylar":3689,"àŃį":3690,"Ġsymb":3691,"Ġprofessional":3692,"Ġmachine":3693,"Wh":3694,"Ġten":3695,"Ġow":3696,"Ġfan":3697,"Ġmic":3698,"Ġgar":3699,"ĠDavid":3700,"Ġvac":3701,"Ġà²":3702,"Ġdescribed":3703,"Ġlayer":3704,"ï¼ļ":3705,"ĠFarsi":3706,"Tail":3707,"Ġfill":3708,"Ġgene":3709,"Ġlunch":3710,"ĠChe":3711,"Ġstage":3712,"ĠWhite":3713,"ĠOxygen":3714,"Ġexc":3715,"Ġleague":3716,"ĠLabel":3717,"Ġperfect":3718,"Ġadult":3719,"Ġincreased":3720,"ĠPersonZ":3721,"Ġboil":3722,"à©Ģ":3723,"Ġnationality":3724,"Ġequival":3725,"ĠOthers":3726,"Ġfuels":3727,"Ġindividual":3728,"Ġfemale":3729,"Ġplaceholder":3730,"Ġ\"___\",":3731,"ued":3732,"Ĳ×":3733,"ining":3734,"ena":3735,"Ġpor":3736,"Ġdry":3737,"idge":3738,"add":3739,"Ġra":3740,"Ġdead":3741,"ĠWhile":3742,"ĠEd":3743,"Ġshown":3744,"Ġactive":3745,"àª²":3746,"Ġroots":3747,"Ġfilter":3748,"Ġpersonal":3749,"ÙĨØ¯":3750,"resh":3751,"Ġdeveloped":3752,"ussian":3753,"Ġfertil":3754,"ĠSkylar":3755,"Ġsubstance":3756,"Ġversion":3757,"Ġremoved":3758,"Ġtour":3759,"iny":3760,"Ġcand":3761,"Ġnoun":3762,"Ġones":3763,"ĠBar":3764,"ĠBrown":3765,"Ġself":3766,"asses":3767,"obal":3768,"Ġcarry":3769,"Ġcouldn":3770,"Ġprovides":3771,"Ġactually":3772,"Ġturned":3773,"ĠIndicate":3774,"Ġguitar":3775,"Ġdevelopment":3776,"Ġveget":3777,"ĠExpl":3778,"Ġsample":3779,"Ġequivalent":3780,"jar":3781,"va":3782,"onym":3783,"Ġwat":3784,"Ġface":3785,"Ġbank":3786,"lection":3787,"osis":3788,"ĠOctober":3789,"Ġkne":3790,"ĠJuly":3791,"Ġunited":3792,"Ġresults":3793,"à´¤":3794,"Ġdesign":3795,"Ġnumer":3796,"Ġquite":3797,"Ġexperience":3798,"Ġpolitic":3799,"Ġliquid":3800,"23":3801,"mar":3802,"áŁ":3803,"Ġir":3804,"Ġcities":3805,"Ġbill":3806,"Ġhope":3807,"ĠII":3808,"oma":3809,"Ġitem":3810,"ille":3811,"à´¯":3812,"lands":3813,"à«ĭ":3814,"Ġfeeling":3815,"time":3816,"ĠIndia":3817,"Ġpancre":3818,"Ġpatient":3819,"200":3820,"40":3821,"Ø¬":3822,"ä¸":3823,"Ġsil":3824,"Ġcou":3825,"Ġfa":3826,"Ġdied":3827,"adian":3828,"ĠPre":3829,"acing":3830,"ĠHar":3831,"iforn":3832,"Ġking":3833,"Ġled":3834,"ĠJust":3835,"ĠLondon":3836,"tention":3837,"ips":3838,"Ġknowing":3839,"Ġjudge":3840,"ĠMovie":3841,"Ġchemicals":3842,"ifornia":3843,"AN":3844,"OU":3845,"Ġsqu":3846,"Ġcub":3847,"Ġcryst":3848,"Ġfelt":3849,"Ġdinner":3850,"Ġrepe":3851,"ida":3852,"Ġplate":3853,"Ġplaces":3854,"Ġchurch":3855,"Ġjuly":3856,"ĠJune":3857,"ackets":3858,"Ġtwice":3859,"odes":3860,"Ġfeet":3861,"Ġspend":3862,"Ġprec":3863,"Ġsurround":3864,"ulfur":3865,"63":3866,"67":3867,"RE":3868,"Title":3869,"med":3870,"ru":3871,"ising":3872,"anch":3873,"Ġpus":3874,"Ġmale":3875,"roy":3876,"iday":3877,"ago":3878,"Ġdeal":3879,"Ġdebut":3880,"Ġseman":3881,"Ġ23":3882,"Ġ28":3883,"unt":3884,"àª¯":3885,"Ġunique":3886,"Ġpercent":3887,"ĠUse":3888,"entific":3889,"Ġdirector":3890,"Ġgenre":3891,"Ġbottom":3892,"Ġvessels":3893,"itchen":3894,"Ġjanuary":3895,"28":3896,"lled":3897,"volution":3898,"writ":3899,"zy":3900,"ald":3901,"Ġforces":3902,"ĠMiddle":3903,"Ġdev":3904,"Ġtray":3905,"Ġdoor":3906,"anger":3907,"Ġlists":3908,"Ġresour":3909,"Ø§ÛĮ":3910,"Ġindic":3911,"Ġmetal":3912,"ĠParagraph":3913,"Ġsteam":3914,"Ġrisk":3915,"Ġpicture":3916,"Ġalphab":3917,"Ġcamer":3918,"Ġfut":3919,"Ġisot":3920,"Ġhospital":3921,"ĠGo":3922,"Ġheavy":3923,"ĠIntern":3924,"ĠJew":3925,"Ġwriter":3926,"àªķ":3927,"à´°":3928,"Ġsurpr":3929,"brary":3930,"ĠMrs":3931,"Ġadvant":3932,"Ġslowly":3933,"Ġentire":3934,"sects":3935,"She":3936,"gment":3937,"hic":3938,"Ġpath":3939,"Ġindu":3940,"Ġbeach":3941,"ili":3942,"à¤Ĺ":3943,"Ġrace":3944,"ĠRoman":3945,"Ġtrapped":3946,"Ġchamp":3947,"Ġ22":3948,"Ġexact":3949,"àª¿":3950,"Ġrole":3951,"Ġimpl":3952,"Ġpremise":3953,"ĠVery":3954,"Ġ2005":3955,"Ġrelation":3956,"Ġbroken":3957,"Ġeventually":3958,"Ġmilk":3959,"ĠCarbon":3960,"Ġstandard":3961,"jpg":3962,"oot":3963,"erals":3964,"Ġsad":3965,"ĠDist":3966,"ulin":3967,"ĠNove":3968,"ander":3969,"ãģ¾":3970,"àªµ":3971,"ĠChar":3972,"ĠØ±":3973,"Ġenc":3974,"cient":3975,"ĠEngland":3976,"à®¤":3977,"Ġprey":3978,"!!!":3979,"Ġcapital":3980,"Ġmilitary":3981,"Ġcreate":3982,"Ġprobably":3983,"ĠExplain":3984,"75":3985,"ped":3986,"äº":3987,"ŀ×":3988,"aste":3989,"Ġdro":3990,"ĠAfric":3991,"Ġstyle":3992,"ĠMag":3993,"teen":3994,"ĠEach":3995,"Ġattem":3996,"ĠIns":3997,"Ġgoal":3998,"Ġdiabet":3999,"Ġsystems":4000,"à¬¾":4001,"Ġending":4002,"Ġgrows":4003,"ĠComp":4004,"Ġdiabetes":4005,"fast":4006,"field":4007,"Ġing":4008,"rees":4009,"Ġomit":4010,"Ġpump":4011,"Ġhints":4012,"ivil":4013,"uth":4014,"ĠSund":4015,"ĠMon":4016,"Ġroll":4017,"Ġassist":4018,"Ġadvice":4019,"Ã³n":4020,"ĠHuman":4021,"29":4022,"rew":4023,"Ġox":4024,"anes":4025,"Ġmer":4026,"Ġmot":4027,"edy":4028,"Ġstreet":4029,"ĠDay":4030,"Ġtrack":4031,"Ġseems":4032,"ĠQuestions":4033,"Ġjune":4034,"ĠØĮ":4035,"struction":4036,"Ġphil":4037,"Ġquiz":4038,"Ġbloodstream":4039,"Ġeveryone":4040,"Ġliked":4041,"Ġscientific":4042,"cutive":4043,"Ġidea":4044,"ĠGujar":4045,"Ġplausible":4046,"Context":4047,"Ġgarden":4048,"Ġaluminum":4049,"Ġpancreas":4050,"\")":4051,"ged":4052,"ients":4053,"oser":4054,"Ġtick":4055,"Ġtiss":4056,"erve":4057,"esp":4058,"Ġsets":4059,"outhern":4060,"ĠTim":4061,"chan":4062,"Ġconstant":4063,"osy":4064,"Ġdecl":4065,"ĠFil":4066,"Ġteach":4067,"Ġkitchen":4068,"Ġexcellent":4069,"Ġproduces":4070,"ĠØ¹":4071,"Ġ2004":4072,"Ġinstances":4073,"ĠAnn":4074,"ĠBlood":4075,"Ġrespir":4076,"Ġsolid":4077,"ĠSeptember":4078,"bl":4079,"iÄ":4080,"xim":4081,"ero":4082,"erv":4083,"Ġsort":4084,"Ġfair":4085,"Ġhands":4086,"Ġeating":4087,"ĠGod":4088,"à¤§":4089,"Ġsuff":4090,"Ġatoms":4091,"Ġkn":4092,"Ġ190":4093,"Ġgramm":4094,"Ġevapor":4095,"Ġpret":4096,"Ġpresident":4097,"Ġmountain":4098,"Ġreligion":4099,"Ð¾Ð":4100,"Ġviol":4101,"Ġneighbor":4102,"EN":4103,"kl":4104,"Ġtax":4105,"Ġfresh":4106,"ites":4107,"Ġhon":4108,"rote":4109,"ades":4110,"Ġrich":4111,"ĠMe":4112,"ĠDuring":4113,"Ġcomma":4114,"ference":4115,"Ġ2000":4116,"Ġearl":4117,"Ġbelongs":4118,"Ġorganic":4119,"Ġturns":4120,"Ġtypo":4121,"Ġprotect":4122,"Ġradio":4123,"Ġscience":4124,"Ġbaseball":4125,"ĠGeorge":4126,"Ġstick":4127,"47":4128,"ao":4129,"ufact":4130,"vin":4131,"ØŃ":4132,"ľ×":4133,"Ġmamm":4134,"Ġlack":4135,"ĠAng":4136,"amb":4137,"Ġrather":4138,"ĠLet":4139,"ĠØ£":4140,"Ġupon":4141,"pty":4142,"Ġbron":4143,"Ġ60":4144,"Ġfamous":4145,"Ġextreme":4146,"Ġactress":4147,"ibility":4148,"Ġregard":4149,"Ġconditions":4150,"minist":4151,"Ġdisappointed":4152,"IONS":4153,"Ġpolitician":4154,"43":4155,"come":4156,"iers":4157,"ius":4158,"Ġsac":4159,"ouds":4160,"Ġdish":4161,"olic":4162,"Ġhem":4163,"Ġdoc":4164,"Ġclaim":4165,"Ġinputs":4166,"Ġmeth":4167,"Ġrequire":4168,"Ġpractice":4169,"Ġisotope":4170,"ĠNovember":4171,"If":4172,"ran":4173,"à»":4174,"Ġbow":4175,"Ġple":4176,"iting":4177,"ĠAb":4178,"ider":4179,"Ġstuff":4180,"Ġfocus":4181,"ĠGl":4182,"Ġvia":4183,"ãģ£":4184,"plit":4185,"Ġgrass":4186,"neys":4187,"Ġflat":4188,"à®°":4189,"ÛĮÙĨ":4190,"Ġchanged":4191,"Ġremains":4192,"Ġlived":4193,"Ġevening":4194,"Ġfront":4195,"Ġmarch":4196,"Ġmovement":4197,"ING":4198,"Ġvehic":4199,"Ġreactions":4200,"Ġengine":4201,"Ġbehav":4202,"Ġcourt":4203,"Ġprobability":4204,"MAS":4205,"ctic":4206,"ging":4207,"mark":4208,"Ø®":4209,"Ġtou":4210,"Ġaugust":4211,"Ġoctober":4212,"arily":4213,"Ġhus":4214,"ĠBy":4215,"ĠHouse":4216,"ests":4217,"Ġcoming":4218,"ĠFrom":4219,"Ġpriv":4220,"Ġfeature":4221,"Ġcolon":4222,"Ġbring":4223,"Ġlooks":4224,"Ġdirected":4225,"à©ĩ":4226,"ennis":4227,"Ġangry":4228,"IL":4229,"ns":4230,"ques":4231,"ray":4232,"sc":4233,"was":4234,"Ġpages":4235,"ager":4236,"agon":4237,"chie":4238,"Ġseven":4239,"ĠKore":4240,"Ġrespective":4241,"ords":4242,"ãĤĮ":4243,"Ġbrackets":4244,"Ġcheap":4245,"azing":4246,"Ġweeks":4247,"Ġpublished":4248,"Ġbreakfast":4249,"Ġexperienced":4250,"Ġtalking":4251,"Ġshopping":4252,"Ġswimming":4253,"Ġclimate":4254,"Ġnormal":4255,"!\"":4256,"att":4257,"Ġfif":4258,"orry":4259,"ĠSam":4260,"à¤ļ":4261,"Ġrange":4262,"ĠEast":4263,"Ġmechan":4264,"ounts":4265,"struct":4266,"ublic":4267,"Ġcontainer":4268,"ĠAlso":4269,"ĠIndian":4270,"ĠSelect":4271,"Ġdistrict":4272,"Ġhotel":4273,"Ġhealthy":4274,"Ġfalls":4275,"Ġcourse":4276,"Ġepis":4277,"Ġfungi":4278,"Ġ×Ķ×":4279,"MASK":4280,"49":4281,"ned":4282,"ror":4283,"rig":4284,"van":4285,"ises":4286,"Ġbene":4287,"Ġonline":4288,"irt":4289,"Ġstat":4290,"Ġrating":4291,"Ġplaced":4292,"ĠMich":4293,"Ġcompe":4294,"Ġchlor":4295,"Ġvoice":4296,"Ġalthough":4297,"ĠEven":4298,"Ġ26":4299,"ĠOver":4300,"Ġ193":4301,"Ġaccept":4302,"Ġspeed":4303,"à¸Ļ":4304,"Ġmanufact":4305,"Ġlooked":4306,"ãĥ³":4307,"Ġserved":4308,"Ġserious":4309,"Ġcentral":4310,"Ġmedic":4311,"Ġproteins":4312,"Ġhistor":4313,"Ġcircu":4314,"Ġentities":4315,"Ġvolcano":4316,"Ġstomach":4317,"Ġfuture":4318,"ooth":4319,"pire":4320,"Ã¶":4321,"attle":4322,"Ġbrought":4323,"ĠpH":4324,"Ġhol":4325,"aches":4326,"ĠBir":4327,"ĠGive":4328,"Ġconcept":4329,"Ġwasn":4330,"Ġdeg":4331,"Ġje":4332,"Ġweak":4333,"Ġfilms":4334,"à¸²":4335,"ĠDecember":4336,"Ġdrug":4337,"Ġcapt":4338,"Ġlots":4339,"Ġruns":4340,"Ġselected":4341,"which":4342,"Ġprogram":4343,"ijing":4344,"Ġflowers":4345,"ĠBuddhism":4346,"ĠDistrict":4347,"ĠGujarati":4348,"69":4349,"89":4350,"book":4351,"bles":4352,"ka":4353,"mary":4354,"off":4355,"ww":4356,"Ġ@":4357,"Ġtub":4358,"Ġozone":4359,"ouis":4360,"Ġtom":4361,"ari":4362,"Ġhop":4363,"Ġhorm":4364,"ĠAre":4365,"Ġreti":4366,"uted":4367,"Ġyork":4368,"Ġvapor":4369,"Ġproduction":4370,"Ġà¤ħ":4371,"ogue":4372,"Ġvalues":4373,"Ġfootballer":4374,"Ġdiseases":4375,"ĠAustralia":4376,".[":4377,"CE":4378,"sing":4379,"zym":4380,"Ġess":4381,"Ġrom":4382,"asts":4383,"Ġinsects":4384,"ĠĠĊ":4385,"Ġeats":4386,"idence":4387,"Ġareas":4388,"Ġran":4389,"Ġtransfer":4390,"ods":4391,"Ġfebruary":4392,"Ø§Ø¯":4393,"Ġpasses":4394,"Ġdress":4395,"Ġempty":4396,"ĠBeijing":4397,"Ġlearning":4398,"Ġdissol":4399,"ĠØ¨Ùĩ":4400,"ĠChristmas":4401,"Ġsyntac":4402,"Ġcamera":4403,"Ġpretty":4404,"Ġhusband":4405,"80":4406,"IM":4407,"ec":4408,"friend":4409,"nic":4410,"pir":4411,"utions":4412,"ÑĢ":4413,"ato":4414,"Ġbal":4415,"itrogen":4416,"Ġdrop":4417,"ĠTod":4418,"otype":4419,"ĠSatur":4420,"aint":4421,"ophy":4422,"ĠRep":4423,"Ġgold":4424,"Ġgoals":4425,"Ġgrav":4426,"Ġolder":4427,"Ġboard":4428,"Ġordered":4429,"ĠFrance":4430,"Ġdivision":4431,"Ġsymbol":4432,"Ġindust":4433,"Ġexactly":4434,"Ġsyntactically":4435,"Why":4436,"ware":4437,"Â°":4438,"Ġft":4439,"Ġpun":4440,"aly":4441,"Ġhar":4442,"Ġna":4443,"Ġnature":4444,"ĠAvoid":4445,"Ġheated":4446,"ĠEner":4447,"Ġ29":4448,"ocr":4449,"Ġà¤¨":4450,"Ġgenerally":4451,"club":4452,"Ġready":4453,"à¨¨":4454,"ĠÙģ":4455,"ĠÙĦ":4456,"Ġgroups":4457,"Ġliter":4458,"Ġintest":4459,"Ġattack":4460,"Ġdistance":4461,"ĠParis":4462,"ford":4463,"uit":4464,"Øµ":4465,"Ġcore":4466,"Ġbike":4467,"Ġpers":4468,"Ġpaid":4469,"Ġdefin":4470,"istry":4471,"Ġ...":4472,"à´Ł":4473,"raw":4474,"hington":4475,"ĠAss":4476,"Ġdifference":4477,"à¬°":4478,"Ġglobal":4479,"Ġenter":4480,"Ġsignific":4481,"Ġenjoyed":4482,"Ġreference":4483,"Ġcommunity":4484,"14":4485,"70":4486,"case":4487,"Ġwish":4488,"Ġfac":4489,"Ġgiving":4490,"enty":4491,"Ġstories":4492,"used":4493,"à°¯":4494,"à¦²":4495,"izes":4496,"à¨¤":4497,"Ġcharge":4498,"Ġhomework":4499,"ĠJanuary":4500,"cape":4501,"Ġdraft":4502,"ĠØ¯Ø±":4503,"Ġargument":4504,"ĠGreek":4505,"writer":4506,"Ġresources":4507,"Ġmotor":4508,"ĠEnergy":4509,"99":4510,"LE":4511,"sp":4512,"Ġwrote":4513,"Ġpu":4514,"Ġinj":4515,"Ġtoy":4516,"Ġthr":4517,"icit":4518,"serv":4519,"ster":4520,"ĠBen":4521,"Ġproject":4522,"Ġjohn":4523,"Ġspread":4524,"à«ģ":4525,"Ġstatements":4526,"Ġminerals":4527,"Ġabsorb":4528,"Ġdraw":4529,"Ġcompletely":4530,"Ġclearly":4531,"Ġdestroy":4532,"Ġpurp":4533,"Ġrecycl":4534,"16":4535,"ective":4536,"Ġapril":4537,"Ġsch":4538,"Ġbur":4539,"anj":4540,"Ġmur":4541,"Ġdan":4542,"Ġthick":4543,"Ġhall":4544,"Ġly":4545,"Ġnative":4546,"adem":4547,"Ġasks":4548,"ĠDis":4549,"Ġnecess":4550,"Ġtrou":4551,"Ġsep":4552,"Ġaltern":4553,"ĠHell":4554,"Ġenzym":4555,"à°¤":4556,"à°ķ":4557,"Ġmostly":4558,"Ġappl":4559,"Ġremaining":4560,"pically":4561,"Ġgrowing":4562,"Ġacids":4563,"Ġrequired":4564,"Ġvolume":4565,"Ġgirls":4566,"Ġactivities":4567,"ĠPresident":4568,"Ġelectrons":4569,"ĠStatement":4570,"Ġhabit":4571,"Ġcrystals":4572,"ael":4573,"back":4574,"hood":4575,"lin":4576,"Ġwest":4577,"Ġcd":4578,"Ġfigure":4579,"edi":4580,"edish":4581,"ste":4582,"ĠSu":4583,"ĠSim":4584,"Ġorg":4585,"ĠBet":4586,"iles":4587,"Ġ(\"":4588,"Ġ21":4589,"Ġship":4590,"ticed":4591,"Ġ.\"":4592,"Ġcarried":4593,"Ġ2015":4594,"Ġcontinue":4595,"Ġjudgment":4596,"ipped":4597,"à³į":4598,"Ġcirc":4599,"ĠEuropean":4600,"Ġplausibility":4601,"Ġsemantically":4602,"Ġadvantage":4603,"Ġoxides":4604,"88":4605,"ND":4606,"coh":4607,"cont":4608,"©×":4609,"Ġlose":4610,"ented":4611,"ĠPart":4612,"ĠMad":4613,"Ġdecember":4614,"ĠRo":4615,"ĠRober":4616,"Ġvoc":4617,"ĠRec":4618,"Ġsoci":4619,"Ġclothes":4620,"à¥Ĥ":4621,"Ø§Ùħ":4622,"Ġrelative":4623,"Ġclassroom":4624,"Ġhighly":4625,"Ġelectron":4626,"Ġ80":4627,"Ġcollection":4628,"noon":4629,"Ġstudying":4630,"Ġburning":4631,"Ġseasons":4632,"Ġallows":4633,"Ġgreenhouse":4634,"Ġboring":4635,"Ġscreen":4636,"body":4637,"eled":4638,"Ð½":4639,"Ø·":4640,"à·":4641,"Ġtired":4642,"Ġtennis":4643,"ern":4644,"inated":4645,"Ġdomin":4646,"Ġthrow":4647,"Ġlines":4648,"utch":4649,"lym":4650,"Ġund":4651,"verse":4652,"Ġconcent":4653,"ĠMark":4654,"ĠRiver":4655,"Ġju":4656,"Ġcompet":4657,"Ġà¤µ":4658,"Ġcontrib":4659,"Ġcontrad":4660,"Ġpassed":4661,"à®Ł":4662,"Ġprefer":4663,"Ġindepend":4664,"Ġcaps":4665,"ĠCanada":4666,"Ġfinally":4667,"Ġcouple":4668,"Ġmammals":4669,"Ġcircuit":4670,"77":4671,"cur":4672,"rap":4673,"ya":4674,"Ġx":4675,"Ġiron":4676,"arget":4677,"igan":4678,"osition":4679,"Ġchain":4680,"Ġsecret":4681,"ĠLike":4682,"Ġlibrary":4683,"orms":4684,"ĠKate":4685,"Ġeducation":4686,"Ġincreasing":4687,"Ġdrive":4688,"Ġemploy":4689,"ÙĪØ±":4690,"Ġglass":4691,"Ġsitting":4692,"ionship":4693,"Ġmedical":4694,"Ġrises":4695,"Ġpencil":4696,"Ġpictures":4697,"Ġsources":4698,"years":4699,"Ġsurvive":4700,"Ġpronouns":4701,"Ġtradition":4702,"Ġdollars":4703,"Ġknew":4704,"Ġseptember":4705,"iant":4706,"mon":4707,"tes":4708,"Ġaust":4709,"erry":4710,"Ġhat":4711,"Ġnet":4712,"Ġanswered":4713,"Ġatom":4714,"ĠFood":4715,"Ġclouds":4716,"ocks":4717,"Ġà¤¦":4718,"Ġà¤¬":4719,"Ġà¤ľ":4720,"Ġfeed":4721,"à¦¤":4722,"à¦¯":4723,"ograph":4724,"Ġadminist":4725,"Ġdishes":4726,"Ġdisplay":4727,"Ġformat":4728,"à®ª":4729,"Ġuseful":4730,"à¥ĩà¤Ĥ":4731,"Ġregular":4732,"Ġfunny":4733,"nesses":4734,"iety":4735,"Ġpolitical":4736,"\"\"\"\"":4737,"Ġplanet":4738,"Ġdocument":4739,"do":4740,"iber":4741,"nam":4742,"Ġlands":4743,"Ġyouth":4744,"vert":4745,"Ġrank":4746,"osion":4747,"Ġselection":4748,"ĠJenn":4749,"Ġnose":4750,"ĠØ´":4751,"Ġafternoon":4752,"ĠVal":4753,"à¸Ń":4754,"Ġemb":4755,"à¬¿":4756,"Ġcracks":4757,"Ġentertain":4758,"aught":4759,"Ġfullname":4760,"Ġlayers":4761,"Ġboys":4762,"Ġterrible":4763,"ĠSunday":4764,"On":4765,"ky":4766,"lan":4767,"vi":4768,"asion":4769,"Ġmath":4770,"Ġdream":4771,"ically":4772,"ĠPaul":4773,"imals":4774,"Ġrates":4775,"Ġplat":4776,"ĠMore":4777,"ĠDNA":4778,"appy":4779,"Ġinterested":4780,"ĠAny":4781,"Ġloves":4782,"Ġsimply":4783,"Ġincluded":4784,"Process":4785,"×Ļ×Ŀ":4786,"Ġkilled":4787,"Ġresearch":4788,"Ġwonderful":4789,"55":4790,"pick":4791,"Ġions":4792,"ĳ×":4793,"Ġtro":4794,"Ġbot":4795,"rog":4796,"ication":4797,"ĠApp":4798,"Ġeth":4799,"otes":4800,"à¤¶":4801,"Ġchrom":4802,"Ġalcoh":4803,"ĠFirst":4804,"Ġjour":4805,"ãģĨ":4806,"ereotype":4807,"ogen":4808,"Ġshel":4809,"Ġrecent":4810,"Ġcars":4811,"Ġsmooth":4812,"Ġstring":4813,"Ġhelped":4814,"Ġ1980":4815,"Ġscient":4816,"Ġnewsp":4817,"Ġstrength":4818,"Ġdiscover":4819,"Ġowl":4820,"Ġattempt":4821,"Ġphilos":4822,"Ġextremely":4823,"83":4824,"ga":4825,"ÚĨ":4826,"Ġachie":4827,"ert":4828,"Ġsulfur":4829,"Ġmis":4830,"ĠMal":4831,"estone":4832,"Ġcomfort":4833,"Ġexh":4834,"ability":4835,"Ġsocc":4836,"bert":4837,"à¦¬":4838,"Ġrespect":4839,"riction":4840,"Ġsubsequ":4841,"Ġschools":4842,"ological":4843,"Ġseparate":4844,"Ġmaintain":4845,"Ġperformance":4846,"Ġabsorbed":4847,"Ġsexual":4848,"Ġfrequency":4849,"klah":4850,"Ġsoccer":4851,"Ñģ":4852,"å½":4853,"head":4854,"Ġcast":4855,"Ġcivil":4856,"Ġdance":4857,"Ġthreat":4858,"ico":4859,"icago":4860,"ĠIm":4861,"Ġemer":4862,"ĠWH":4863,"ĠPat":4864,"active":4865,"ĠHy":4866,"Ġconduct":4867,"Ġmold":4868,"Ġamb":4869,"Ġblock":4870,"Ġdesigned":4871,"Ġprep":4872,"Ġeffects":4873,"Ġsmallest":4874,"phone":4875,"à±ĭ":4876,"Ġunderstanding":4877,"Ġreflect":4878,"Ġstored":4879,"Ġpicked":4880,"ĠFrank":4881,"Ġrecords":4882,"Ġannoun":4883,"Ġemotional":4884,"Ġinternational":4885,"ĠWilliam":4886,"ĠSmith":4887,"Ġnutrients":4888,"Not":4889,"OO":4890,"Ġur":4891,"enc":4892,"Ġinner":4893,"Ġder":4894,"ĠTony":4895,"Ġreact":4896,"see":4897,"sem":4898,"Ġforward":4899,"Ġrap":4900,"chi":4901,"Ġseeds":4902,"Ġopin":4903,"à¦ķ":4904,"Ġspouse":4905,"ãĤī":4906,"Ġ2003":4907,"Ġrelax":4908,"Ġtypically":4909,"Ġdescription":4910,"ĠAsia":4911,"ÙĪØ¯":4912,"Ġsimpl":4913,"atically":4914,"Ġlabeled":4915,"ification":4916,"Ġfinished":4917,"iii":4918,"III":4919,"Ġarrived":4920,"Ġcycle":4921,"Ġdeliver":4922,"Ġapproxim":4923,"Ġcele":4924,"washer":4925,"Ġsignificant":4926,"Ġpurpose":4927,"Here":4928,"cher":4929,"west":4930,"Ġsend":4931,"Ġok":4932,"anced":4933,"Ġpet":4934,"Ġgun":4935,"Ġnar":4936,"ĠIT":4937,"ĠIts":4938,"amil":4939,"à¤£":4940,"Ġren":4941,"olar":4942,"choices":4943,"osite":4944,"Ġmotion":4945,"ula":4946,"Ġcans":4947,"Ġparaphr":4948,"ĠJoe":4949,"ĠLuc":4950,"aks":4951,"Ġclosed":4952,"ĠØ®":4953,"Ġevolution":4954,"Ġagent":4955,"âĢĮ":4956,"Ġconsum":4957,"Ġdecay":4958,"Ġlongest":4959,"Ġremember":4960,"ialogue":4961,"Ġfamil":4962,"Ġ189":4963,"Ġcapill":4964,"Ġleads":4965,"Ġ1970":4966,"oking":4967,"Ġprotein":4968,"Ġengland":4969,"Ġmountains":4970,"Ġcollected":4971,"à¸²à¸":4972,"Ġintestine":4973,"24":4974,"zo":4975,"ä½":4976,"Ġaf":4977,"Ġaud":4978,"atin":4979,"Ġwestern":4980,"Ġbath":4981,"ingu":4982,"Ġmor":4983,"Ġng":4984,"oming":4985,"ĠCr":4986,"Ġord":4987,"Ġprot":4988,"Ġrivers":4989,"ĠHel":4990,"ĠYear":4991,"tebr":4992,"Ġchance":4993,"ighter":4994,"ript":4995,"ogn":4996,"Ġ35":4997,"Ġrecently":4998,"Ġinfe":4999,"Ġkeeping":5000,"Choices":5001,"Ġ):":5002,"capital":5003,"Ġreferred":5004,"Ġpotential":5005,"incip":5006,"Ġviruses":5007,"Ġearthquake":5008,"Ġgenetic":5009,"ST":5010,"over":5011,"sy":5012,"zen":5013,"Ġaqu":5014,"esome":5015,"Ġwin":5016,"Ġcases":5017,"Ġfiction":5018,"Ġpi":5019,"Ġpal":5020,"roat":5021,"Ġec":5022,"ota":5023,"ĠWas":5024,"Ġrub":5025,"Ġconse":5026,"umn":5027,"ĠMed":5028,"ĠMus":5029,"Ġalone":5030,"ĠFin":5031,"Ġexha":5032,"Ġlever":5033,"inetic":5034,"Ġnove":5035,"Ġroot":5036,"Ġoffensive":5037,"artment":5038,"aily":5039,"Ġindicate":5040,"Ġmuscle":5041,"Ġcontaining":5042,"Ġ65":5043,"ĠUnion":5044,"ĠAlthough":5045,"à²¿":5046,"Ġ1997":5047,"Ġrespond":5048,"ĠGenerated":5049,"Ġvisited":5050,"Ġclubs":5051,"ĠColle":5052,"Ġmodel":5053,"Ġkidneys":5054,"OPTIONS":5055,"ĠChristian":5056,"Ġwebsite":5057,"Ġearlier":5058,"ĠSaturday":5059,"87":5060,"When":5061,"gl":5062,"gin":5063,"top":5064,"Ùī":5065,"Ġ|":5066,"onic":5067,"Ġsolution":5068,"tition":5069,"ĠBro":5070,"ĠMiss":5071,"Ġworse":5072,"ĠOf":5073,"Ġkinetic":5074,"ĠLook":5075,"ãģĵ":5076,"Ġcompl":5077,"Ġcomple":5078,"ĠØ¢":5079,"Ġfeatures":5080,"à°¦":5081,"à´±":5082,"Ġsupply":5083,"ells":5084,"Ġdiet":5085,"à®¾":5086,"Ġapples":5087,"Ġfounded":5088,"Ġcalc":5089,"Ġorganization":5090,"Ġreleases":5091,"Ġbelief":5092,"à¹Ī":5093,"Ġreligious":5094,"ĠPhil":5095,"Ġyellow":5096,"klahoma":5097,"Ġcelebr":5098,"ais":5099,"uge":5100,"Å¼":5101,"Ġaward":5102,"enger":5103,"isp":5104,"atives":5105,"Ġwinter":5106,"Ġcab":5107,"Ġfant":5108,"Ġfund":5109,"Ġpull":5110,"ita":5111,"itor":5112,"Ġdu":5113,"Ġgain":5114,"omas":5115,"à¤Ł":5116,"Ġheating":5117,"team":5118,"Ġtruck":5119,"Ġsection":5120,"unately":5121,"inder":5122,"Ġamazing":5123,"ĠUK":5124,"ĠĠĠĠĠĠĠĠ":5125,"à¨¸":5126,"à®©":5127,"Ġapplic":5128,"Ġcolors":5129,"Ġrelevant":5130,"Ġshowed":5131,"ception":5132,"Ġteams":5133,"ĠÙħÛĮ":5134,"Ġcomputers":5135,"×ķ×ª":5136,"Ġballs":5137,"Ġbrothers":5138,"Ġreproduce":5139,"Ġearthquakes":5140,"Ġstructure":5141,"ĠWindows":5142,"ĠFebruary":5143,"Ġsacs":5144,"Ġrespectively":5145,"Ġsociety":5146,"Be":5147,"bit":5148,"fly":5149,"know":5150,"well":5151,"Ġbod":5152,"ancial":5153,"orrow":5154,"asy":5155,"Ġtool":5156,"Ġdata":5157,"lling":5158,"Ġlaugh":5159,"ĠCor":5160,"atell":5161,"ĠBad":5162,"à¤ľ":5163,"ĠRet":5164,"Ġchick":5165,"ĠFl":5166,"Ġshoes":5167,"ĠLa":5168,"Ġarter":5169,"anges":5170,"ĠReg":5171,"àª¸":5172,"à´Ĥ":5173,"titute":5174,"Ġflows":5175,"Ġcoast":5176,"Ġcommer":5177,"hesis":5178,"ãĤĤ":5179,"Ġdrinks":5180,"ĠCanadian":5181,"Ġnearly":5182,"Ġsummary":5183,"Ġdogs":5184,"Ġprevent":5185,"Ġpurchase":5186,"Ġmixed":5187,"Ġintroduced":5188,"Ġestablished":5189,"Ġresistance":5190,"Ġmedicine":5191,"Ġrecycling":5192,"Ġnovember":5193,"61":5194,"[-]":5195,"aut":5196,"Ã¤":5197,"Ġsale":5198,"Ġways":5199,"Ġhung":5200,"roid":5201,"Ġlakes":5202,"seum":5203,"separ":5204,"ĠTheir":5205,"ĠWest":5206,"ĠSer":5207,"ĠPeter":5208,"imum":5209,"ached":5210,"ĠBur":5211,"Ġride":5212,"Ġrise":5213,"ĠHill":5214,"Ġcomedy":5215,"elve":5216,"Ġwear":5217,"Ġclar":5218,"Ġnoticed":5219,"Ġà¤Ĩ":5220,"Ġrob":5221,"à¦®":5222,"Ġcarries":5223,"Ġbranch":5224,"ismic":5225,"Ġcommonly":5226,"Ġsounds":5227,"ĠPlants":5228,"Ġexplan":5229,"Ġpaint":5230,"Ġislands":5231,"Ġofficial":5232,"ĠGreece":5233,"Ġhydrogen":5234,"Ġmeasure":5235,"ĠToday":5236,"Ġplatform":5237,".)":5238,"95":5239,"IT":5240,"ker":5241,"rup":5242,"Ãł":5243,"æľ":5244,"Ġign":5245,"Ġtarget":5246,"Ġsave":5247,"reci":5248,"Ġbound":5249,"tig":5250,"Ġgerm":5251,"ĠSet":5252,"ĠSand":5253,"ĠCub":5254,"ado":5255,"ads":5256,"ĠPark":5257,"ĠQue":5258,"ĠOutput":5259,"iano":5260,"Ġspores":5261,"ubject":5262,"netic":5263,"order":5264,"Ġstudies":5265,"Ġagric":5266,"ĠStreet":5267,"Ġ2002":5268,"Ġ1999":5269,"Ġmainly":5270,"ĠMarch":5271,"Ġdepos":5272,"Ġinvolved":5273,"ĠPortugese":5274,"Ġimmune":5275,"Ġimmedi":5276,"ipping":5277,"Ġeffort":5278,"Ġchampionship":5279,"Ġdishwasher":5280,"Ġnecessary":5281,"ĠRobert":5282,"iable":5283,"mo":5284,"met":5285,"more":5286,"nice":5287,"Ø°":5288,"å®":5289,"Ġtiny":5290,"Ġsorry":5291,"Ġcatch":5292,"ancy":5293,"asa":5294,"Ġmist":5295,"alist":5296,"Ġgro":5297,"Ġeast":5298,"irm":5299,"Ġstor":5300,"ĠPal":5301,"iger":5302,"Ġwhose":5303,"à¤¡":5304,"olina":5305,"Ġconstruction":5306,"Ġplates":5307,"Ġplastic":5308,"ĠDes":5309,"ĠRes":5310,"allow":5311,"Ġarm":5312,"ocol":5313,"Ġupdate":5314,"Ġadvert":5315,"Ø§Øª":5316,"Ġinsulin":5317,"Ġflood":5318,"Ġdesire":5319,"à§ģ":5320,"Ġà¦ķ":5321,"Ġsett":5322,"àª¾àªĤ":5323,"Ġmedia":5324,"ucky":5325,"Ġopened":5326,"Ġenglish":5327,"Ġstopped":5328,"Ġsubstances":5329,"Ġwidely":5330,"Ġassistant":5331,"Ġapproximately":5332,"Ġfamilies":5333,"An":5334,"Is":5335,"Possible":5336,"car":5337,"gian":5338,"wan":5339,"Ġtun":5340,"estic":5341,"isa":5342,"reed":5343,"Ġcult":5344,"Ġfriction":5345,"Ġbrit":5346,"Ġiniti":5347,"Ġdaily":5348,"ĠTel":5349,"Ġnitrogen":5350,"ĠAg":5351,"omb":5352,"Ġeight":5353,"Ġyard":5354,"Ġul":5355,"aging":5356,"ĠHaven":5357,"osomes":5358,"ĠMond":5359,"ĠDialogue":5360,"ĠRussian":5361,"ulated":5362,"Ġchap":5363,"ĠOcean":5364,"Ġprincip":5365,"ava":5366,"Ġaccess":5367,"Ġcontract":5368,"ĠKh":5369,"Ġspir":5370,"ĠIsland":5371,"Ġsche":5372,"Ġàªª":5373,"Ġaccount":5374,"Ġsafe":5375,"Ġtells":5376,"à²¾":5377,"Ġexamples":5378,"Ġ1994":5379,"Ġkeeps":5380,"Ġmarried":5381,"ĠSometimes":5382,"undred":5383,"Ġvariety":5384,"Ġsedimentary":5385,"ĠÚ©Ùĩ":5386,"Ġcopper":5387,"Ġwalls":5388,"related":5389,"Ġprecip":5390,"iest":5391,"oly":5392,"sk":5393,"then":5394,"ville":5395,"Ġâ":5396,"isc":5397,"Ġsplit":5398,"Ġwa":5399,"Ġwal":5400,"Ġwild":5401,"Ġcream":5402,"Ġfed":5403,"Ġbones":5404,"Ġpul":5405,"Ġhole":5406,"lla":5407,"Ġnone":5408,"omers":5409,"ĠSch":5410,"ĠSince":5411,"ĠBig":5412,"Ġplann":5413,"Ġmeat":5414,"Ġsod":5415,"Ġprime":5416,"ockey":5417,"Ġà¤°":5418,"Ġspot":5419,"ĠCons":5420,"ĠAnimals":5421,"Ġglac":5422,"Ġpolar":5423,"Ġpolicy":5424,"Ġguy":5425,"Ġdeveloping":5426,"Ġfinancial":5427,"ĠFriday":5428,"ointed":5429,"Ġerosion":5430,"ĠGroup":5431,"ĠGermany":5432,"à¥ĭà¤Ĥ":5433,"Ġspeaker":5434,"ãģĹãģŁ":5435,"Ġlimestone":5436,"Ġdiscuss":5437,"Ġelectrical":5438,"ĠSwedish":5439,"ĠInternet":5440,"ILAR":5441,"IMILAR":5442,"Ġaustral":5443,"ĠCollege":5444,"OV":5445,"fit":5446,"uals":5447,"vis":5448,"ØĮ":5449,"Ġturb":5450,"Ġsite":5451,"Ġwet":5452,"Ġpiz":5453,"inger":5454,"icient":5455,"Ġlink":5456,"Ġorange":5457,"ache":5458,"Ġdeb":5459,"Ġdevice":5460,"Ġsequ":5461,"Ġshore":5462,"ĠOff":5463,"ably":5464,"Ġà¤¤":5465,"Ġrod":5466,"Ġplayers":5467,"ãĤĬ":5468,"à®²":5469,"Ġmuseum":5470,"Ġtransported":5471,"Ġobtain":5472,"Ġ[-":5473,"à±ĩ":5474,"ictor":5475,"ĠÙħÙĨ":5476,"Ġlimited":5477,"Ġwaiting":5478,"fortunately":5479,"ãģ¦ãģĦ":5480,"Ġbattery":5481,"Ġfreezer":5482,"Ġrespiratory":5483,"Ġgravity":5484,"Ġtrouble":5485,"Ġenzymes":5486,"Ġconsecutive":5487,"isphere":5488,"100":5489,"My":5490,"pill":5491,"anas":5492,"Ġpig":5493,"Ġhundred":5494,"Ġgender":5495,"ĠIS":5496,"à¤·":5497,"à¤ı":5498,"oses":5499,"Ġexcept":5500,"Ġarmy":5501,"pped":5502,"Ġtwelve":5503,"ildren":5504,"ĠChurch":5505,"Ġmyself":5506,"ouses":5507,"titude":5508,"ugu":5509,"Ġrecogn":5510,"Ġholds":5511,"Ġquery":5512,"Ġconsists":5513,"ãĥ«":5514,"Ġretains":5515,"Ġslower":5516,"ĠØ§Ø²":5517,"ropical":5518,"Ġmultiply":5519,"Ġsolar":5520,"box":5521,"Ġwalking":5522,"Ġmajority":5523,"Ġlogical":5524,"Ġissues":5525,"Ġadditional":5526,"Ġgradu":5527,"Ġdirection":5528,"Ġforeign":5529,"Ġexcited":5530,"Ġtissue":5531,"Ġdegree":5532,"Ġopinion":5533,"ĠReturn":5534,"separated":5535,"//":5536,"OS":5537,"Person":5538,"hi":5539,"ios":5540,"iled":5541,"rated":5542,"ua":5543,"Ġtit":5544,"Ġsouthern":5545,"oul":5546,"asure":5547,"Ġdanger":5548,"ĠTry":5549,"cel":5550,"ĠSum":5551,"ĠCO":5552,"iments":5553,"actions":5554,"apes":5555,"Ġplane":5556,"ĠMount":5557,"Ġseismic":5558,"Ġalter":5559,"Ġattention":5560,"ansk":5561,"There":5562,"Ġleaving":5563,"ĠLake":5564,"aval":5565,"Ġcontr":5566,"Ġpoly":5567,"ermud":5568,"à¨²":5569,"ãĤ¤":5570,"ĠÙĤ":5571,"Ġappreci":5572,"Ġquiet":5573,"Ġdriving":5574,"Ġinstall":5575,"Ġfinds":5576,"Ġremain":5577,"ÙĪÙĨ":5578,"Ġcrust":5579,"Ġà¨¸":5580,"Ġà°ª":5581,"ropri":5582,"Ġ1950":5583,"Ġequal":5584,"Ġappeared":5585,"Ġallowed":5586,"Ġcondition":5587,"Ġreduced":5588,"Ġconcert":5589,"Ġbutterfly":5590,"ĠCalifornia":5591,"Ġmechanical":5592,"Ġmurder":5593,"Ġrelatively":5594,"lympic":5595,"33":5596,"://":5597,"fall":5598,"ias":5599,"mical":5600,"nes":5601,"à¶":5602,"Ġcater":5603,"Ġcous":5604,"Ġbrown":5605,"Ġmental":5606,"alam":5607,"Ġthin":5608,"ĠSan":5609,"ĠCat":5610,"ady":5611,"Ġfollowed":5612,"ĠHist":5613,"ĠMic":5614,"ĠDutch":5615,"ifer":5616,"Ġtruth":5617,"Ġsearch":5618,"Ġalk":5619,"ops":5620,"Ġshar":5621,"ĠOld":5622,"Ġnote":5623,"ightly":5624,"ãģį":5625,"ãģķ":5626,"Ġprint":5627,"Ġcompress":5628,"Ġspring":5629,"Ġamounts":5630,"à´²":5631,"Ġadults":5632,"Ġcommand":5633,"à®®":5634,"Ġbuildings":5635,"Ġdetect":5636,"Ġquar":5637,"Ġdrum":5638,"Ġmusical":5639,"Ġserv":5640,"Ġsaying":5641,"Ġscen":5642,"Ġfeels":5643,"Ġ[+]":5644,"Ġended":5645,"Ġthinking":5646,"Ġexperiment":5647,"Ġdivide":5648,"Ġproperly":5649,"Ġlistening":5650,"Ġoriginally":5651,"Ġcreates":5652,"Ġseemed":5653,"Ġimprove":5654,"Ġutter":5655,"tarctic":5656,"ĠJews":5657,"Ġregarding":5658,"ĠMonday":5659,"IC":5660,"ien":5661,"mat":5662,"åĪ":5663,"Ġsen":5664,"Ġsan":5665,"Ġancient":5666,"Ġinstructions":5667,"Ġthous":5668,"Ġhtt":5669,"Ġlif":5670,"Ġstores":5671,"ĠBo":5672,"ĠBeng":5673,"ĠBermud":5674,"ilities":5675,"à¤¬":5676,"viewer":5677,"Ġneutral":5678,"Ġsem":5679,"ĠElect":5680,"Ġnoise":5681,"ĠThanks":5682,"Ġrot":5683,"Ġblank":5684,"ubl":5685,"Ġfilled":5686,"neutral":5687,"Ġflight":5688,"Ġcoach":5689,"Ġthank":5690,"à®¯":5691,"ĠStar":5692,"Ġ2001":5693,"àµĨ":5694,"Ġàªķ":5695,"Ġ×Ĳ×":5696,"Ġbroke":5697,"à©±":5698,"Ġescape":5699,"Ġballoon":5700,"Ġannoy":5701,"Ġissue":5702,"Ġopposite":5703,"Ġinstrument":5704,"Ġbehavior":5705,"capitalize":5706,"[+]":5707,"bel":5708,"lob":5709,"life":5710,"length":5711,"nie":5712,"uild":5713,"zz":5714,"ening":5715,"Ġwarn":5716,"Ġbud":5717,"tile":5718,"tial":5719,"lls":5720,"llig":5721,"aded":5722,"amin":5723,"ositive":5724,"ĠMah":5725,"Ġproducer":5726,"Ġcompound":5727,"Ġlip":5728,"ĠHeat":5729,"Ġrose":5730,"Ġlisted":5731,"à¦¸":5732,"Ġstudio":5733,"Ġbuilds":5734,"ĠArmy":5735,"Ġindex":5736,"ĠAntarctic":5737,"Ġrepair":5738,"ÙĪÙĦ":5739,"Ġrights":5740,"Ġ1990":5741,"vention":5742,"áŀ¶":5743,"Ġsolo":5744,"Ġwarming":5745,"Ġreceive":5746,"Ġstanding":5747,"Ġsuccessful":5748,"Ġdissolved":5749,"Ġprecipitation":5750,"78":5751,"93":5752,"col":5753,"war":5754,"Ã¨":5755,"ËĪ":5756,"åħ":5757,"Ģà¸":5758,"Ġtank":5759,"inet":5760,"Ġfix":5761,"orter":5762,"Ġtox":5763,"Ġhaven":5764,"urs":5765,"agn":5766,"ils":5767,"ĠHaving":5768,"ĠMc":5769,"Ġtri":5770,"esting":5771,"Ġalle":5772,"Ġshare":5773,"rian":5774,"ĠOklahoma":5775,"Ġcompounds":5776,"Ġfell":5777,"ension":5778,"Ġsmoke":5779,"ĠÙ¾":5780,"ĠAndy":5781,"Ġàª¸":5782,"Ġ[-]":5783,"Ġaccur":5784,"Ġsinging":5785,"Ġmeters":5786,"Ġsituations":5787,"Ġteachers":5788,"Ġreaches":5789,"Ġfarther":5790,"Ġstronger":5791,"Ġwalked":5792,"Ġvolcanoes":5793,"Ġtriple":5794,"Ġsweat":5795,"ĠDaniel":5796,"Ġbatteries":5797,"Ġboiler":5798,"Ġfaith":5799,"Ġalphabets":5800,"Ġvehicle":5801,"Ġcapillaries":5802,"pillar":5803,"26":5804,"aign":5805,"comm":5806,"la":5807,"ners":5808,"ram":5809,"heast":5810,"Ġsatell":5811,"Ġcred":5812,"Ġpounds":5813,"leton":5814,"Ġmine":5815,"Ġda":5816,"Ġdies":5817,"Ġhun":5818,"Ġgam":5819,"Ġlies":5820,"Ġnine":5821,"Ġonto":5822,"ĠSen":5823,"ĠHen":5824,"Ġnego":5825,"iff":5826,"Ġchocol":5827,"Ġjump":5828,"pel":5829,"They":5830,"ĠJane":5831,"aked":5832,"Ġwouldn":5833,"Ġuncle":5834,"iana":5835,"Ġcontact":5836,"Ġrecording":5837,"raight":5838,"ĠVen":5839,"arely":5840,"ptoms":5841,"othing":5842,"ãĥ©":5843,"Ġcontained":5844,"Ġaffected":5845,"Ġchanging":5846,"Ġ×ľ×":5847,"Ġfruit":5848,"iverse":5849,"Ġmagaz":5850,"Ġmemory":5851,"Ġchemistry":5852,"Ġ&#":5853,"Ġcools":5854,"Ġproperty":5855,"Ġcovered":5856,"Ġassociation":5857,"Ġcopy":5858,"Ġlegal":5859,"Ġeffective":5860,"Ġbreathe":5861,"ĠCentral":5862,"ĠAfrica":5863,"Ġtouch":5864,"Ġstatus":5865,"Ġdestroyed":5866,"ĠWashington":5867,"41":5868,"But":5869,"Fact":5870,"ba":5871,"cal":5872,"down":5873,"fish":5874,"px":5875,"ux":5876,"ĠÚĨ":5877,"Ġate":5878,"Ġavoid":5879,"estiv":5880,"Ġmax":5881,"Ġinten":5882,"ctors":5883,"Ġanswerable":5884,"sey":5885,"lying":5886,"ĠWit":5887,"ĠSar":5888,"ĠCells":5889,"Ġstri":5890,"ĠPet":5891,"ĠBattle":5892,"cho":5893,"istan":5894,"Ġtraining":5895,"opic":5896,"Ġworst":5897,"Ġshape":5898,"Ġjog":5899,"Ġtea":5900,"ĠLar":5901,"Ġacqu":5902,"Ġliber":5903,"onds":5904,"Ġimpress":5905,"Ġspr":5906,"Ġdisp":5907,"Ġbeings":5908,"Ġedition":5909,"ãĤ¹":5910,"Ġobser":5911,"Ġstress":5912,"Ġglad":5913,"Ġaccom":5914,"Ġacting":5915,"Ġà¨¦":5916,"Ġzone":5917,"Ġsky":5918,"Ġbroad":5919,"Ġinvolves":5920,"ĠTHIS":5921,"Ġexpressed":5922,"Ġarguments":5923,"Ġgifts":5924,"Ġlogic":5925,"Ġconnects":5926,"ĠKingdom":5927,"Ġtechnology":5928,"Ġcounter":5929,"Ġsquare":5930,"Ġsurprise":5931,"Ġhormones":5932,"Ġalternative":5933,"98":5934,">,":5935,"EL":5936,"Head":5937,"lie":5938,"men":5939,"yard":5940,"ĠÃ©":5941,"encing":5942,"Ġsat":5943,"Ġwire":5944,"Ġodd":5945,"Ġbored":5946,"orph":5947,"iter":5948,"Ġmal":5949,"Ġmut":5950,"aling":5951,"ceed":5952,"Ġforced":5953,"imal":5954,"ĠBook":5955,"ĠBible":5956,"à¤¥":5957,"ĠHaw":5958,"Ġaspect":5959,"Ġconc":5960,"Ġdefinitely":5961,"iffer":5962,"ĠRock":5963,"Ġchief":5964,"Ġsec":5965,"uses":5966,"ĠOPT":5967,"ĠLouis":5968,"Ġuns":5969,"Ġyourself":5970,"à°Ł":5971,"Ġgrade":5972,"Ġadop":5973,"Ġ31":5974,"weight":5975,"ĠVer":5976,"Ġbuys":5977,"ÛĮÙħ":5978,"ĠAnother":5979,"ĠUnfortunately":5980,"ÙĩØ§":5981,"Ġacts":5982,"Ġ1998":5983,"Ġentered":5984,"Ġmedium":5985,"Ġleading":5986,"Ġsituated":5987,"Ġexposed":5988,"Ġeasier":5989,"Ġpowerful":5990,"Ġappears":5991,"Ġcleaning":5992,"Ġgenus":5993,"à¹Ģà¸":5994,"Ġdrinking":5995,"Ġhydro":5996,"Ġfluid":5997,"Ġprimarily":5998,"ancis":5999,"Ġmatches":6000,"ĠØ±Ø§":6001,"ĠMichael":6002,"Ġcompetition":6003,"Ġorgans":6004,"ĠParty":6005,"Ġbottle":6006,"Ġexplanation":6007,"Ġnegoti":6008,")\",":6009,"71":6010,"Al":6011,"ET":6012,"Where":6013,"['":6014,"ef":6015,"pet":6016,"under":6017,"zens":6018,"Ġtend":6019,"Ġtheory":6020,"ened":6021,"isters":6022,"Ġcere":6023,"org":6024,"organ":6025,"Ġmit":6026,"Ġmap":6027,"Ġmathe":6028,"edd":6029,"ĠAvailable":6030,"Ġreverse":6031,"aya":6032,"Ġfol":6033,"Ġring":6034,"Ġrid":6035,"Ġconstruct":6036,"ĠOur":6037,"ĠLove":6038,"Ġupset":6039,"à°µ":6040,"à°¸":6041,"izing":6042,"oglob":6043,"artin":6044,"Ġdisag":6045,"Ġinfect":6046,"ĠÙĥ":6047,"Ġappropri":6048,"Ġgreatest":6049,"Ġelev":6050,"azi":6051,"azz":6052,"Ġhelpful":6053,"à¯Ī":6054,"Ġrecommended":6055,"Ġ1991":6056,"Ġzoo":6057,"ĠOnly":6058,"à©°":6059,"Ġleader":6060,"Ġsales":6061,"Ġtemperatures":6062,"Ġrecorded":6063,"Ġcards":6064,"Ġbattle":6065,"Ġphoto":6066,"Ġbreath":6067,"Ġconnected":6068,"Ġstructures":6069,"ĠCoal":6070,"Who":6071,"Ġcandid":6072,"Ġnumerical":6073,"rupt":6074,"osynt":6075,"iÄĻ":6076,"Ġannounced":6077,"anskrit":6078,"oglobin":6079,"31":6080,"66":6081,"76":6082,"Ar":6083,"eal":6084,"rate":6085,"sentence":6086,"ship":6087,"vince":6088,"áº":6089,"çļ":6090,"Ġ!":6091,"ona":6092,"Ġther":6093,"Ġfail":6094,"Ġfurn":6095,"Ġpush":6096,"Ġmad":6097,"Ġdrought":6098,"Ġthinks":6099,"Ġgone":6100,"ĠTer":6101,"ĠApril":6102,"omo":6103,"ceans":6104,"oted":6105,"ĠBU":6106,"ĠBoth":6107,"throp":6108,"ĠMil":6109,"Ġtraff":6110,"Ġsus":6111,"Ġvan":6112,"ĠNap":6113,"xture":6114,"ĠInput":6115,"ria":6116,"Ġpara":6117,"ĠJes":6118,"Ġà¤²":6119,"apping":6120,"Ġbecoming":6121,"Ġgrab":6122,"raid":6123,"à®±":6124,"Ġapple":6125,"ccording":6126,"Ġreasoning":6127,"Ġ×©×":6128,"Ġcapable":6129,"Ġstarting":6130,"Ġstarring":6131,"Ġexpensive":6132,"Ġwindow":6133,"Ġmagn":6134,"Ġmembr":6135,"Ġsoils":6136,"Ġcontinued":6137,"byter":6138,"Ġpredict":6139,"Ġpredators":6140,"ĠOtherwise":6141,"Ġcooking":6142,"Ġtelephone":6143,"Ġhorrible":6144,"Ġnorthern":6145,"Ġcreating":6146,"Ġrule":6147,"Ġgrammatically":6148,"Ġbowl":6149,"Ġprivate":6150,"Ġnewspaper":6151,"Ġhttp":6152,"osynthesis":6153,"Ġtraffic":6154,"37":6155,"OW":6156,"ji":6157,"ÅĻ":6158,"á¹":6159,"Ġtor":6160,"onse":6161,"istics":6162,"Ġoceans":6163,"Ġculture":6164,"Ġmich":6165,"Ġhint":6166,"Ġhuge":6167,"lly":6168,"Ġlie":6169,"ĠTues":6170,"ĠAL":6171,"ird":6172,"urd":6173,"Ġstraight":6174,"ĠPut":6175,"terday":6176,"char":6177,"Ġneither":6178,"ulations":6179,"aine":6180,"ĠEnd":6181,"Ġparas":6182,"ĠLo":6183,"pper":6184,"anged":6185,"ãģı":6186,"ĠØ¬":6187,"redients":6188,"ogens":6189,"à´®":6190,"clusion":6191,"Ġpassenger":6192,"Ġprem":6193,"à¸±":6194,"ĠStud":6195,"Ġmanager":6196,"Ġdiff":6197,"Ġscript":6198,"Ġseeing":6199,"Ġlocations":6200,"Ġ70":6201,"Ġ90":6202,"Ġdistrib":6203,"Ġbusy":6204,"Ġiden":6205,"ĠPlace":6206,"Ġcleaned":6207,"Ġfishing":6208,"Ġpairs":6209,"Ġemotions":6210,"ĠLeague":6211,"olly":6212,"Ġmelting":6213,"Ġvibr":6214,"jective":6215,"á»į":6216,"Ġeconomic":6217,"Ġreported":6218,"ĠSpeech":6219,"Ġdirections":6220,"Ġgarage":6221,"ĠKorean":6222,"Ġcontradict":6223,"Ġsubsequent":6224,"Ġrapid":6225,"tebrates":6226,"Ġagriculture":6227,"esticides":6228,"Ġcaterpillar":6229,"ĠAntarctica":6230,"çļĦ":6231,"22":6232,"79":6233,"EG":6234,"Ne":6235,"RL":6236,"Read":6237,"We":6238,"bio":6239,"craft":6240,"ginning":6241,"iors":6242,"ses":6243,"Ġ{":6244,"Ľ×":6245,"ante":6246,"Ġpage":6247,"asp":6248,"ĠTake":6249,"Ġnest":6250,"ĠSIMILAR":6251,"ĠCong":6252,"ĠBoy":6253,"Ġassem":6254,"Ġconcepts":6255,"Ġhen":6256,"Ġtrib":6257,"Ġchall":6258,"Ġnotes":6259,"ĠRem":6260,"Ġclue":6261,"Ġcloser":6262,"Ġcompris":6263,"ĠØŃ":6264,"ĠThank":6265,"Ġà¤ī":6266,"Ġformation":6267,"Ġtexts":6268,"raz":6269,"Ġclassic":6270,"Ġinterp":6271,"Ġstrings":6272,"Ġscene":6273,"Ġbreaking":6274,"ashion":6275,"Ġconsider":6276,"Ġacidic":6277,"annel":6278,"Ġera":6279,"ĠGrade":6280,"Ġyounger":6281,"Ġcontinues":6282,"Ġfalling":6283,"Ġexperiences":6284,"Ġexpresses":6285,"Ġsymptoms":6286,"Ġphotosynthesis":6287,"ĠâĢĮ":6288,"Ġmoment":6289,"ĠJeff":6290,"Ġnuclear":6291,"Which":6292,"Ġmicro":6293,"Ġpushed":6294,"Ġalphabe":6295,"Ġretired":6296,"Ġconcentration":6297,"Ġadministr":6298,"known":6299,"Ġbodies":6300,"Ġbritish":6301,"ublican":6302,"Oh":6303,"ollow":6304,"su":6305,"Äħ":6306,"ĠÂ":6307,"Ġsav":6308,"atit":6309,"answer":6310,"Ġpool":6311,"Ġpiano":6312,"Ġmall":6313,"rol":6314,"Ġgather":6315,"ĠTime":6316,"ivia":6317,"ĠST":6318,"ĠSing":6319,"irty":6320,"igr":6321,"iguous":6322,"ĠBest":6323,"ĠBul":6324,"Ġshared":6325,"ãģĤ":6326,"Ġtwenty":6327,"Ġcomposed":6328,"ĠThrough":6329,"oseph":6330,"à¨¼":6331,"Ġfactors":6332,"ĠCont":6333,"pton":6334,"ãĥĪ":6335,"Ġdifferences":6336,"Ġcrim":6337,"Ġgrown":6338,"Ġà¦¸":6339,"Ġlabor":6340,"Ġinvest":6341,"Ġmission":6342,"Ġnearby":6343,"Ġcharacteristic":6344,"ÃŃa":6345,"Ġtreated":6346,"Ġ1968":6347,"Ġdivis":6348,"Ġopening":6349,"Ġdepending":6350,"Ġkinds":6351,"Ġsupports":6352,"Ġfields":6353,"Ġcopies":6354,"Ġsuccessor":6355,"Ġmeeting":6356,"ĠEmpire":6357,"Ġjoin":6358,"Ġdouble":6359,"ĠNorthern":6360,"Ġtalks":6361,"Ġticket":6362,"Ġtubes":6363,"stein":6364,"Ġalcohol":6365,"Ġafraid":6366,"Ġpizza":6367,"ĠNapole":6368,"34":6369,"As":6370,"bing":6371,"haps":6372,"part":6373,"Ġtv":6374,"isher":6375,"Ġwinning":6376,"Ġpatter":6377,"itz":6378,"Ġinh":6379,"Ġtoken":6380,"Ġdyn":6381,"Ġhang":6382,"ĠSto":6383,"ĠSci":6384,"ĠSanskrit":6385,"agm":6386,"essor":6387,"ĠYe":6388,"iller":6389,"ĠRich":6390,"Ġtrash":6391,"Ġseat":6392,"ĠNavy":6393,"Ġnoted":6394,"ĠJones":6395,"ĠLangu":6396,"aka":6397,"cessor":6398,"Ġcloud":6399,"Ġà¤Ĺ":6400,"ailment":6401,"ourt":6402,"Ġimag":6403,"ipino":6404,"ĠURL":6405,"ports":6406,"Ġflo":6407,"Ġdesp":6408,"Ġcarb":6409,"rael":6410,"Ġspeech":6411,"ãĤĵ":6412,"à¸ĩ":6413,"Ġ45":6414,"entially":6415,"Ġcrime":6416,"Ġactors":6417,"Ġmedal":6418,"Ġfourth":6419,"Ġowned":6420,"anny":6421,"ĠGrand":6422,"Ġloses":6423,"garian":6424,"uropean":6425,"à¹ī":6426,"Ġdamaged":6427,"Ġbreathing":6428,"Ġreproduction":6429,"Ġfungus":6430,"ĠMinister":6431,"Ġhateful":6432,"Ġepisode":6433,"Ġchicken":6434,"Ġimmediately":6435,"Ġchocolate":6436,"ifferent":6437,"97":6438,"Can":6439,"TH":6440,"ca":6441,"cr":6442,"cers":6443,"formation":6444,"hh":6445,"hand":6446,"ruc":6447,"tan":6448,"vious":6449,"win":6450,"word":6451,"yer":6452,"Äį":6453,"Ø£":6454,"Ø¶":6455,"Ġion":6456,"onia":6457,"Ġcode":6458,"Ġfashion":6459,"Ġgall":6460,"Ġnic":6461,"ĠIran":6462,"section":6463,"ĠSl":6464,"Ġforget":6465,"ĠBel":6466,"Ġproto":6467,"ĠGet":6468,"olf":6469,"ĠMel":6470,"Ġtries":6471,"usive":6472,"ĠFlor":6473,"ĠOK":6474,"ĠON":6475,"Ġwearing":6476,"Ġclos":6477,"ĠHealth":6478,"Ġà¤Ń":6479,"enses":6480,"ensus":6481,"Ġlistener":6482,"Ġsperm":6483,"à´Ļ":6484,"Ġforming":6485,"Ġpreser":6486,"âĢĿ":6487,"Ø±Ø¯":6488,"Ġàª®":6489,"Ġ×ĳ×":6490,"Ġcausing":6491,"ĠBefore":6492,"à²°":6493,"Ġ1993":6494,"Ġà¨ķ":6495,"Ġintellig":6496,"Ġwinds":6497,"Ġweekend":6498,"Ġerup":6499,"lessly":6500,"Ġ1960":6501,"Ġsupporting":6502,"iament":6503,"Ġtopics":6504,"Ġabsolutely":6505,"Ġmelted":6506,"Ġhurt":6507,"Ġconsisting":6508,"Ġestablish":6509,"ĠGovern":6510,"äºº":6511,"ĠAfrican":6512,"Ġindustry":6513,"Ġdefined":6514,"ĠHello":6515,"Ġapplied":6516,"chioles":6517,"ĠLucy":6518,"Ġbathroom":6519,"Ġtitles":6520,"ĠVenus":6521,"estival":6522,"Ġappropriate":6523,"44":6524,"Cl":6525,"Of":6526,"VER":6527,"town":6528,"ule":6529,"wich":6530,"Ã±":6531,"ÅĽ":6532,"ÛĴ":6533,"å¤":6534,"åı":6535,"çĶ":6536,"Ġcul":6537,"Ġcoc":6538,"Ġfc":6539,"Ġbass":6540,"ittle":6541,"lee":6542,"Ġthus":6543,"Ġham":6544,"icans":6545,"ĠIN":6546,"ĠAND":6547,"Ġrev":6548,"Ġreve":6549,"Ġreviewer":6550,"uts":6551,"lder":6552,"ĠSal":6553,"Ġstated":6554,"illed":6555,"Ġrough":6556,"ĠHall":6557,"umber":6558,"Ġseed":6559,"Ġalma":6560,"Ġarch":6561,"ucks":6562,"ĠRevolution":6563,"Ġacadem":6564,"place":6565,"class":6566,"Ġknows":6567,"Ġflour":6568,"pring":6569,"Ġiod":6570,"Ġcalifornia":6571,"Ġstrateg":6572,"à¬¤":6573,"Ġslightly":6574,"Ġ1995":6575,"Ġmusician":6576,"Ġsettle":6577,"ĠOnce":6578,"Ġstarred":6579,"Ġ1984":6580,"Ġ1989":6581,"Ġattr":6582,"ãģ®æ":6583,"Ġequally":6584,"Ġ1940":6585,"Ġgirlfriend":6586,"Ġcardinal":6587,"ĠBritain":6588,"Ġapartment":6589,"ĠPresbyter":6590,"Ġhurric":6591,"×¨×":6592,"Ġcritic":6593,"ãģ£ãģŁ":6594,"Ġperspective":6595,"Ġindependent":6596,"Ġspirit":6597,"Ġschedu":6598,"ĠBengali":6599,"ĠHenry":6600,"ĠTuesday":6601,"'/":6602,"AY":6603,"CT":6604,"cup":6605,"lines":6606,"oid":6607,"rd":6608,"yp":6609,"¢×":6610,"åĲ":6611,"è¨":6612,"éģ":6613,"ĠÛ":6614,"Ġ__":6615,"Ġton":6616,"inary":6617,"Ġod":6618,"Ġfet":6619,"itter":6620,"ala":6621,"Ġgym":6622,"ĠTurn":6623,"Ġbear":6624,"idae":6625,"Ġstorm":6626,"apers":6627,"ĠDep":6628,"Ġdepress":6629,"ĠRoy":6630,"tex":6631,"Ġtruly":6632,"Ġsees":6633,"opin":6634,"anda":6635,"agement":6636,"Ġjunk":6637,"riage":6638,"Ġteen":6639,"eles":6640,"Ġà¥":6641,"Ġprin":6642,"Ġcompon":6643,"àªª":6644,"Ġà¤¯":6645,"ĠKim":6646,"Ġblow":6647,"à´£":6648,"negative":6649,"Ġinstit":6650,"Ġprepar":6651,"Ġeleph":6652,"Ġintersection":6653,"Ġdownlo":6654,"à±Ģ":6655,"Ġ×ŀ×":6656,"à¬¨":6657,"Ġcrack":6658,"Ġminute":6659,"timate":6660,"Ġframe":6661,"àºĻ":6662,"comp":6663,"Ġdigit":6664,"Ġmillions":6665,"Ġweathering":6666,"Ġbatt":6667,"à³ģ":6668,"Ġagreement":6669,"Ġmixture":6670,"Ġindividuals":6671,"Ġkilomet":6672,"rosc":6673,"Ġantibio":6674,"Ġwavelength":6675,"Ġprimary":6676,"Ġfreezes":6677,"ĠFilipino":6678,"Ġviolence":6679,"Ġneighborhood":6680,"Ġcolonies":6681,"Ġroman":6682,"ĠRepublic":6683,"Ġdiscovered":6684,"ĠHypothesis":6685,"Ġexhaled":6686,"Ġgrocer":6687,"ĠWitnesses":6688,"Ġaccompl":6689,"Ġalphabetical":6690,"53":6691,"Sh":6692,"den":6693,"hov":6694,"ih":6695,"iÃ³n":6696,"liament":6697,"rs":6698,"wo":6699,"ä»":6700,"Ġaer":6701,"estive":6702,"isl":6703,"real":6704,"Ġos":6705,"Ġciti":6706,"Ġpsy":6707,"Ġmud":6708,"arian":6709,"ĠAut":6710,"ĠAth":6711,"Ġbeat":6712,"herent":6713,"ading":6714,"Ġstations":6715,"Ġ\"\"":6716,"Ġconne":6717,"ĠDem":6718,"Ġcham":6719,"Ġaltitude":6720,"ĠFind":6721,"outheast":6722,"ĠLaw":6723,"Ġproducing":6724,"berg":6725,"àª¶":6726,"Ġuna":6727,"à¦¼":6728,"ously":6729,"Ġreader":6730,"Ġoverl":6731,"atholic":6732,"Ġfactory":6733,"Ġsteps":6734,"Ġbrief":6735,"Ġdecision":6736,"Ġcharged":6737,"ĠàªĽ":6738,"Ġ78":6739,"Ġà¦¬":6740,"Ġsetting":6741,"Ġ1983":6742,"Ġintact":6743,"Ġlabels":6744,"Ġcustomers":6745,"Ġperformed":6746,"Ġradi":6747,"Ġexplicit":6748,"ĠZh":6749,"Ġdepend":6750,"ussia":6751,"ĠØ§ÙĦÙħ":6752,"Ġillust":6753,"Ġprompt":6754,"Ġbags":6755,"Ġfertiliz":6756,"Ġvegetables":6757,"Ġingredients":6758,"osystem":6759,"Ġhonor":6760,"piration":6761,"Ġjuice":6762,"ĠJenny":6763,"Ġcommercial":6764,"Ġstorage":6765,"ĠTelugu":6766,"ĠNapoleon":6767,"'/'":6768,"68":6769,"73":6770,"One":6771,"gu":6772,"giving":6773,"hard":6774,"ipe":6775,"just":6776,"nal":6777,"yo":6778,"yond":6779,"ģà¸":6780,"Ġtu":6781,"Ġax":6782,"onna":6783,"Ġsink":6784,"Ġsends":6785,"reland":6786,"Ġwit":6787,"Ġcig":6788,"Ġcrow":6789,"Ġcrop":6790,"Ġfasc":6791,"Ġpit":6792,"Ġdur":6793,"Ġloose":6794,"Ġlaz":6795,"ston":6796,"ĠWestern":6797,"ĠSus":6798,"Ġum":6799,"Ġrules":6800,"Ġfollows":6801,"ola":6802,"iston":6803,"andon":6804,"Ġjack":6805,"abi":6806,"Ġcompared":6807,"eps":6808,"Ġunivers":6809,"Ġroles":6810,"à°®":6811,"ĠKen":6812,"à´ª":6813,"Ġtranslating":6814,"Ġcommit":6815,"Ġalbums":6816,"à¸µ":6817,"Ġpersons":6818,"upid":6819,"Ġdecomp":6820,"Ġmush":6821,"Ġfinding":6822,"Ġproviding":6823,"ĠShort":6824,"Ġaccident":6825,"ĠØ§ÛĮÙĨ":6826,"Ġelectro":6827,"à²¨":6828,"áŀĵ":6829,"Ġ1982":6830,"Ġ1971":6831,"Ġpowers":6832,"Ġincomp":6833,"ĠØ¨Ø±":6834,"Ġpollut":6835,"Ġcontinuous":6836,"ĠCarolina":6837,"goals":6838,"Ġopera":6839,"Ġoperations":6840,"Ġfreed":6841,"Ġprede":6842,"àŃĩ":6843,"kenazi":6844,"Ġcolder":6845,"Ġnovels":6846,"Ġreaching":6847,"Ġà¤ªà¤°":6848,"burg":6849,"Ġparticularly":6850,"Ġcampaign":6851,"Ġeconomy":6852,"Ġstrengthen":6853,"Ġvacation":6854,"Ġsurrounding":6855,"Ġencour":6856,"esponse":6857,"Ġevaporates":6858,"ophyll":6859,"clubs":6860,"Ġtraditional":6861,"ibern":6862,"lantic":6863,"Ġinfection":6864,"Ġservices":6865,"ealand":6866,"Link":6867,"OM":6868,"Orig":6869,"cor":6870,"Ð²":6871,"Ð»":6872,"inals":6873,"ishes":6874,"Ġske":6875,"Ġsides":6876,"Ġcow":6877,"Ġfav":6878,"Ġfrog":6879,"Ġmac":6880,"Ġlas":6881,"ĠToo":6882,"Ġnation":6883,"iva":6884,"ivision":6885,"Ġreb":6886,"Ġyog":6887,"urt":6888,"Ġstret":6889,"Ġfold":6890,"Ġrice":6891,"Ġrib":6892,"ĠHem":6893,"ĠRE":6894,"Ġvit":6895,"using":6896,"opher":6897,"Ġshipping":6898,"unity":6899,"Ġkick":6900,"ĠJo":6901,"ĠLatin":6902,"Ġ1930":6903,"ĠChicago":6904,"Ġà¤¶":6905,"Ġusual":6906,"à´³":6907,"claim":6908,"à¨Ĥ":6909,"Ġdipl":6910,"weet":6911,"ĠVir":6912,"ĠArg":6913,"Ġdrama":6914,"ãĥª":6915,"cluding":6916,"Ġextract":6917,"Ġ1992":6918,"ãĢį":6919,"Ġattached":6920,"Ġ1975":6921,"Ġsuggest":6922,"Ġhotter":6923,"ĠPlant":6924,"ĠCarl":6925,"Ġfarmer":6926,"Ġburned":6927,"Ġbedroom":6928,"Ġthirty":6929,"echn":6930,"Ġproperties":6931,"Ġcosts":6932,"Ġlegs":6933,"ĠOrgan":6934,"Ġsurvival":6935,"ĠâĢľ":6936,"Ġborrow":6937,"Ġcommentary":6938,"ĠText":6939,"ĠBuddhist":6940,"Ġdemand":6941,"Ġfighting":6942,"Ġportion":6943,"ĠHarry":6944,"Ġrepeated":6945,"Ġindicating":6946,"Ġhemoglobin":6947,"ĠKorea":6948,"Ġessential":6949,"Ġhabitat":6950,"Ġshelter":6951,"Ġcomfortable":6952,"Ġexhib":6953,"zoa":6954,"Ġhungry":6955,"Ġplatforms":6956,"Ġpredecessor":6957,"':":6958,"86":6959,"90":6960,"BC":6961,"LY":6962,"cast":6963,"cription":6964,"ras":6965,"rates":6966,"uation":6967,"yg":6968,"ying":6969,"zech":6970,"Ãº":6971,"Å¾":6972,"Ø«":6973,"åľ":6974,"Ġ00":6975,"Ġvel":6976,"Ġtaste":6977,"Ġfear":6978,"Ġban":6979,"ani":6980,"iture":6981,"alys":6982,"Ġdens":6983,"Ġhouses":6984,"ĠTO":6985,"ĠTamil":6986,"Ġnerv":6987,"ĠSediment":6988,"ĠCoun":6989,"ĠBack":6990,"Ġmoist":6991,"Ġtra":6992,"anted":6993,"ĠInter":6994,"Ġjoy":6995,"rial":6996,"ĠOb":6997,"Ġmex":6998,"Ġexcess":6999,"Ġsoap":7000,"Ġweb":7001,"berry":7002,"àª¡":7003,"àªĹ":7004,"àªľ":7005,"àªŁ":7006,"Ġà¤ĩ":7007,"à°Ĺ":7008,"Ġimages":7009,"Ġspin":7010,"ĠVol":7011,"à¸£":7012,"Ġmaybe":7013,"Ġgreatly":7014,"Ġstrange":7015,"ĠàªĨ":7016,"Ġloan":7017,"à¬ķ":7018,"ĠØ§Ø³Øª":7019,"Ġboat":7020,"ospher":7021,"Ġaddress":7022,"Ġdecreased":7023,"Ġ1996":7024,"Ġcentre":7025,"amps":7026,"Ġzero":7027,"Ġtesting":7028,"ãĢĮ":7029,"ologist":7030,"Ġà¤ķà¤°":7031,"Ġ1952":7032,"Ġwarmer":7033,"Ġyesterday":7034,"ĠExcellent":7035,"Ġtotally":7036,"Ġconverts":7037,"Ġstrongly":7038,"ï¼Į":7039,"Ġideal":7040,"Ġenvironmental":7041,"Ġsupermark":7042,"Ġfrequently":7043,"Ġmessage":7044,"ĠAcid":7045,"Ġbillion":7046,"Ġsurrounded":7047,"ãģ¾ãģĻ":7048,"Ġfairly":7049,"Ġfifth":7050,"ĠFinally":7051,"Ġsodium":7052,"Ġdangerous":7053,"Ġutterance":7054,"Ġsatellite":7055,"hovah":7056,"**":7057,"ACE":7058,"Eng":7059,"ID":7060,"dis":7061,"gn":7062,"ho":7063,"hyd":7064,"li":7065,"mail":7066,"po":7067,"Ã£":7068,"Ã¼":7069,"Ðº":7070,"ł×":7071,"hel":7072,"esota":7073,"Ġsi":7074,"Ġstim":7075,"rele":7076,"Ġcu":7077,"Ġcas":7078,"Ġfig":7079,"Ġble":7080,"itan":7081,"Ġmaster":7082,"Ġintention":7083,"Ġtooth":7084,"Ġdavid":7085,"Ġha":7086,"ici":7087,"ĠTai":7088,"Ġnick":7089,"ĠAM":7090,"celer":7091,"otland":7092,"ira":7093,"Ġstereotype":7094,"ĠBay":7095,"Ġhero":7096,"umes":7097,"ifies":7098,"Ġtrade":7099,"Ġtracks":7100,"Ġvary":7101,"Ġshot":7102,"ĠOF":7103,"ĠOl":7104,"ĠOtt":7105,"Ġkg":7106,"Ġwilliam":7107,"ĠLong":7108,"ĠLind":7109,"Ġarms":7110,"ishop":7111,"ards":7112,"ĠThomas":7113,"Ġherself":7114,"à°¡":7115,"Ġspending":7116,"ography":7117,"peror":7118,"ãĤĪ":7119,"jected":7120,"Ġclassified":7121,"Ġbrand":7122,"Ġdecides":7123,"Ġserve":7124,"phy":7125,"innesota":7126,"Ġminister":7127,"Ġà¦ª":7128,"Ġclever":7129,"Ġcurren":7130,"ÙĬØ©":7131,"Ġà°µ":7132,"Ġsignal":7133,"Ġà´ķ":7134,"Ġburns":7135,"ietnam":7136,"caps":7137,"Ġauthority":7138,"Ġmelt":7139,"ĠNegative":7140,"Ġresponsible":7141,"Ġselling":7142,"Ġreplacement":7143,"Ġtreatment":7144,"Ġcombined":7145,"Ġharmful":7146,"Ġawesome":7147,"Ġsenses":7148,"ascular":7149,"Ġboiling":7150,"áŁĴ":7151,"Ġcube":7152,"ĠCharles":7153,"ĠØ¹ÙĦ":7154,"Ġdrops":7155,"Ġlyric":7156,"Ġscientists":7157,"Ġurine":7158,"Ġecosystem":7159,"ĠâĨ":7160,"ĠJesus":7161,"ĠFlorida":7162,"Original":7163,"46":7164,"500":7165,"Do":7166,"FC":7167,"Some":7168,"father":7169,"gi":7170,"lam":7171,"yan":7172,"you":7173,"ÄĽ":7174,"åĽ":7175,"è¦":7176,"Ġtight":7177,"Ġahead":7178,"erus":7179,"Ġben":7180,"Ġpores":7181,"asis":7182,"alian":7183,"Ġhomes":7184,"Ġhockey":7185,"roit":7186,"Ġgod":7187,"Ġgiant":7188,"Ġrevolution":7189,"ione":7190,"second":7191,"Ġforg":7192,"Ġfork":7193,"ila":7194,"à¤ĸ":7195,"Ġrab":7196,"ĠHor":7197,"ĠHot":7198,"osa":7199,"osh":7200,"uming":7201,"ĠMake":7202,"ift":7203,"Ġtrail":7204,"Ġseam":7205,"Ġalg":7206,"ĠFour":7207,"Ġleaf":7208,"Ġnotice":7209,"Ġunits":7210,"Ġcorner":7211,"rys":7212,"Ġ36":7213,"Ġprocesses":7214,"Ġreads":7215,"à¨Ĩ":7216,"ãĤ¢":7217,"Ġholding":7218,"Ġpresid":7219,"à¤¾à¤Ĥ":7220,"ausible":7221,"ÛĮØ¯":7222,"Ġinterview":7223,"Ġearned":7224,"Ġàªľ":7225,"Ġcrick":7226,"ØªØ±":7227,"Ġà¨µ":7228,"Ġresulting":7229,"Ġmarine":7230,"Ġ1985":7231,"àº²":7232,"Ġswitch":7233,"Ġharder":7234,"Ġattract":7235,"Ġ1972":7236,"Ġowner":7237,"ĠBlue":7238,"Ġ1953":7239,"Ġvisible":7240,"Ġdigestion":7241,"Ġbasis":7242,"Ġterrit":7243,"Ġcollects":7244,"Ġpractic":7245,"Ġhorse":7246,"Ġinternet":7247,"ĠJehovah":7248,"ĠChemical":7249,"Ġvegetation":7250,"Ġwatched":7251,"Ġnumerous":7252,"REAT":7253,"ĠInternational":7254,"Ġdropped":7255,"ĠCompany":7256,"Ġpumped":7257,"Ġhistoric":7258,"ĠBirds":7259,"Ġdrugs":7260,"Ġhoping":7261,"ĠRecords":7262,"encies":7263,"Ġnarrow":7264,"Ġchapter":7265,"Ġannoying":7266,"Ġmushroom":7267,"English":7268,".',":7269,"Com":7270,"cie":7271,"ecutive":7272,"first":7273,"rich":7274,"yr":7275,"ÄĻ":7276,"inate":7277,"Ġtheater":7278,"Ġoh":7279,"Ġfirm":7280,"Ġmars":7281,"Ġthief":7282,"ĠIce":7283,"sert":7284,"Ġbeer":7285,"sex":7286,"oting":7287,"ĠSouthern":7288,"ett":7289,"agers":7290,"Ġwithd":7291,"ĠHave":7292,"Ġplain":7293,"osen":7294,"Ġshoot":7295,"rier":7296,"ĠOut":7297,"ĠLight":7298,"ĠLife":7299,"ĠLisa":7300,"Ġcompan":7301,"ĠChopin":7302,"à°ª":7303,"reek":7304,"Ġperman":7305,"Ġsuppl":7306,"Ġspect":7307,"à¨ķ":7308,"ĠProvince":7309,"Ġagreed":7310,"ĠÙĬ":7311,"Ġunderground":7312,"Ġpresents":7313,"Ġartists":7314,"Ġairport":7315,"Ġfriendly":7316,"Ġsubs":7317,"Ġlock":7318,"ĠTherefore":7319,"ĠBeing":7320,"Ġinvented":7321,"State":7322,"ÙĬÙĨ":7323,"Ġ1987":7324,"Ġwindows":7325,"Ġerr":7326,"ĠItaly":7327,"ĠGeneral":7328,"Ġdivided":7329,"Ġgenes":7330,"Ġstops":7331,"Ġglucagon":7332,"essee":7333,"ĠAshkenazi":7334,"Ġdestruc":7335,"×Ķ×":7336,"Ġreduce":7337,"ĠWithin":7338,"Ġneighb":7339,"ãģĻãĤĭ":7340,"Ġdoub":7341,"Ġprior":7342,"Ġfertilization":7343,"Ġpathogens":7344,"Ġtickets":7345,"Ġtissues":7346,"Ġmethods":7347,"Ġvehicles":7348,"vania":7349,"Ġcaptured":7350,"ocratic":7351,"Ġdominant":7352,"ĠMusic":7353,"Ġcabinet":7354,"Ġdeposited":7355,"lympics":7356,"Ġhunting":7357,"ĠHawai":7358,"Ġinterpret":7359,"Ġgrocery":7360,"Ġdensity":7361,"ĠCouncil":7362,"\").":7363,"56":7364,"91":7365,"Build":7366,"CA":7367,"nÃŃ":7368,"pm":7369,"pre":7370,"rons":7371,"sur":7372,"wed":7373,"éĢ":7374,"Ġoven":7375,"Ġanger":7376,"Ġcoo":7377,"Ġcaught":7378,"Ġfle":7379,"Ġbind":7380,"Ġmir":7381,"Ġmol":7382,"Ġinher":7383,"Ġdad":7384,"Ġdomes":7385,"Ġdiction":7386,"Ġluck":7387,"ĠCryst":7388,"Ġstays":7389,"Ġstupid":7390,"ament":7391,"amorph":7392,"ayalam":7393,"acific":7394,"agus":7395,"Ġpromin":7396,"Ġrac":7397,"ĠYOU":7398,"illy":7399,"Ġmob":7400,"Ġmoon":7401,"ĠMet":7402,"ĠMix":7403,"ĠRose":7404,"ĠFred":7405,"Ġshut":7406,"Ġmeets":7407,"Ġtex":7408,"Ġparent":7409,"akistan":7410,"Ġproud":7411,"Ġunion":7412,"Ġunlike":7413,"iance":7414,"Ġgrapes":7415,"ipes":7416,"Ø§Ø¨":7417,"Ġdisap":7418,"Ġ32":7419,"Ġcoat":7420,"rait":7421,"Ġsmell":7422,"Ġsmoking":7423,"Ġjobs":7424,"à®³":7425,"Ġvillages":7426,"pletion":7427,"ĠVe":7428,"auses":7429,"Ġcharges":7430,"Ġinterior":7431,"Ġobvious":7432,"Ġhumor":7433,"ÙħØ§":7434,"ĠForce":7435,"Ġmineral":7436,"à²²":7437,"Ġregions":7438,"Ġbiggest":7439,"ĠIndones":7440,"Ġ1973":7441,"Ġpicks":7442,"Ġcountryside":7443,"Ġrooms":7444,"Ġcharacterized":7445,"Ġatmospher":7446,"Ġfully":7447,"Ġsignals":7448,"Ġexplain":7449,"Ġdetermined":7450,"Ġ1947":7451,"Ġmarked":7452,"Ġdigital":7453,"Ġcuts":7454,"Ġmassive":7455,"Ġgeograph":7456,"Ġideas":7457,"olester":7458,"Ġofficer":7459,"Ġchairs":7460,"Ġafford":7461,"Ġinstruments":7462,"ĠPremise":7463,"ĠMagma":7464,"Ġmeronym":7465,"Ġcapture":7466,"www":7467,"Ġpunct":7468,"Ġachieve":7469,"Ġaudi":7470,"ginia":7471,"Ġarteries":7472,"Ġpulled":7473,"Ġpolarity":7474,"Ġdiscussion":7475,"Ġgamet":7476,"Ġcitizens":7477,"Ġpollutants":7478,"Ġnervous":7479,"Ã£o":7480,"ĠâĨĴ":7481,".;":7482,"74":7483,"And":7484,"Good":7485,"POS":7486,"bro":7487,"based":7488,"how":7489,"person":7490,"spe":7491,"uing":7492,"worms":7493,"Î±":7494,"ĵ×":7495,"heim":7496,"atre":7497,"Ġwound":7498,"Ġwax":7499,"Ġcam":7500,"Ġcyl":7501,"Ġcensus":7502,"Ġfalse":7503,"tific":7504,"Ġpure":7505,"Ġpens":7506,"Ġpup":7507,"eding":7508,"Ġdust":7509,"Ġhunt":7510,"Ġlighter":7511,"Ġlava":7512,"Ġnd":7513,"Ġreality":7514,"stery":7515,"iders":7516,"ĠSaint":7517,"ĠCourt":7518,"ags":7519,"ĠGold":7520,"ĠGREAT":7521,"à¤¼":7522,"Ġrack":7523,"Ġrail":7524,"ĠHi":7525,"ĠMass":7526,"Ġdelic":7527,"Ġalive":7528,"Ġshorter":7529,"unction":7530,"ĠLin":7531,"ĠLittle":7532,"Ġactions":7533,"Ġà¤Ķ":7534,"Ġusage":7535,"ours":7536,"Ġenem":7537,"iped":7538,"ategory":7539,"ĠUnder":7540,"Ġevil":7541,"Ġinsight":7542,"Ġinfer":7543,"Ġcoins":7544,"Ġsyn":7545,"à®µ":7546,"ĠVictor":7547,"Ġqual":7548,"Ġaircraft":7549,"Ġbrings":7550,"Ġserving":7551,"Ġeveryday":7552,"Ġeverywhere":7553,"Ġàª°":7554,"Ġemit":7555,"Ġoldest":7556,"Ġends":7557,"Ġauth":7558,"Ġelectrom":7559,"Ġà¨¨":7560,"Ġmetamorph":7561,"Ġgrew":7562,"ternal":7563,"Ġ1988":7564,"Ġdisturb":7565,"Ġ1977":7566,"Ġcharacteristics":7567,"Ġ1964":7568,"Ġbreaks":7569,"Ġburner":7570,"Ġarrange":7571,"Ġhandle":7572,"Ġconfuse":7573,"Ġthirteen":7574,"Ġdigestive":7575,"Ġpainting":7576,"Ġdefe":7577,"Ġtweets":7578,"Ġcookies":7579,"Ġprogress":7580,"porary":7581,"Ġapproach":7582,"Ġyeast":7583,"ĠAustralian":7584,"Ġsickle":7585,"ĠCenter":7586,"Ġsoftware":7587,"Ġraised":7588,"Ġcubes":7589,"fielder":7590,"ĠFilm":7591,"Ġrespiration":7592,"Ġfacility":7593,"ĠBetty":7594,"ĠApple":7595,"Ġcompleted":7596,"Ġthousands":7597,"Ġmagazine":7598,"ĠSarah":7599,"Ġinfected":7600,"Ġidentity":7601,"Ġfetus":7602,"Ġinstitutions":7603,"Ġcrowd":7604,"relevant":7605,"Ġcurrency":7606,"Statement":7607,"olesterol":7608,"At":7609,"BA":7610,"Ind":7611,"boy":7612,"don":7613,"ez":7614,"equ":7615,"ja":7616,"jo":7617,"kes":7618,"matic":7619,"otic":7620,"pa":7621,"rical":7622,"wor":7623,"Ã¥":7624,"çī":7625,"ĠÚ¯":7626,"Ĺ×":7627,"Ġtur":7628,"Ġawards":7629,"atoes":7630,"Ġcine":7631,"Ġcart":7632,"Ġcakes":7633,"Ġfans":7634,"Ġbases":7635,"astern":7636,"Ġmant":7637,"Ġtower":7638,"Ġtoward":7639,"Ġhill":7640,"Ġholes":7641,"ller":7642,"Ġloud":7643,"Ġbeyond":7644,"ĠWarm":7645,"ĠCap":7646,"ĠCroat":7647,"Ġstock":7648,"ampton":7649,"ĠPoll":7650,"Ġwhom":7651,"agalog":7652,"ĠBC":7653,"ĠBre":7654,"ĠBor":7655,"aped":7656,"Ġcontem":7657,"Ġplus":7658,"ĠMen":7659,"ĠMartin":7660,"ĠDou":7661,"ĠDar":7662,"ĠRain":7663,"Ġtrust":7664,"Ġtrivia":7665,"Ġseats":7666,"andy":7667,"andom":7668,"duc":7669,"Ġjoke":7670,"Ġnotable":7671,"pping":7672,"Ġsof":7673,"Ġcompar":7674,"Ġworkout":7675,"àª£":7676,"Ġunable":7677,"Ġunless":7678,"Ġunrelated":7679,"ocation":7680,"Ġà¤ı":7681,"Ġoffers":7682,"à¦Ł":7683,"ĠUV":7684,"ĠUsing":7685,"Ġadap":7686,"Ġadapt":7687,"Ø§Ùĩ":7688,"aturally":7689,"Ġflor":7690,"Ġdiam":7691,"ĠVo":7692,"Ġpresence":7693,"Ġcolumn":7694,"ãĥ»":7695,"grade":7696,"Ġàªħ":7697,"ohyd":7698,"Ġasking":7699,"Ġtelling":7700,"Ġà¦¨":7701,"ĠAmericans":7702,"Ġhyp":7703,"ologists":7704,"Ġleaders":7705,"ĠSecond":7706,"Ġintended":7707,"Ġ1976":7708,"Ġsevere":7709,"Ġincome":7710,"Ġsuggests":7711,"Ġ1957":7712,"ylvania":7713,"Ġwarmth":7714,"Ġprofessor":7715,"Ġconflic":7716,"Ġabsorbs":7717,"shire":7718,"Ġsexually":7719,"while":7720,"Ġcurrentclub":7721,"!!!!!!!!":7722,"Ġappearance":7723,"Ġsticks":7724,"Ġmessages":7725,"Ġdevices":7726,"ĠJewish":7727,"Ġsurprised":7728,"iliar":7729,"Ġrolls":7730,"Ġconstantly":7731,"Ġteaching":7732,"Ġbronch":7733,"Ġpleased":7734,"ĠMichigan":7735,"Ġholiday":7736,"Ġtomorrow":7737,"Ġbalance":7738,"Ġprepared":7739,"Ġorders":7740,"Ġapplication":7741,"Ġplanning":7742,"anasius":7743,"Ġquarter":7744,"ĠBermuda":7745,"Ġmaximum":7746,"Ġcandidate":7747,"ĠEnding":7748,"ĠBulgarian":7749,"ĠURLs":7750,"Ġcarbohyd":7751,"ĠAthanasius":7752,"alysis":7753,"48":7754,"59":7755,"96":7756,"FL":7757,"PA":7758,"[-":7759,"bow":7760,"fr":7761,"face":7762,"ki":7763,"mond":7764,"rie":7765,"right":7766,"sm":7767,"walk":7768,"Ã½":7769,"æĺ":7770,"Ġens":7771,"Ġtast":7772,"Ġav":7773,"Ġsab":7774,"Ġcats":7775,"Ġber":7776,"tives":7777,"lement":7778,"Ġma":7779,"Ġdin":7780,"Ġdirty":7781,"Ġhook":7782,"Ġhob":7783,"ications":7784,"Ġnomin":7785,"Ġnarr":7786,"enth":7787,"ĠAccording":7788,"stereotype":7789,"idel":7790,"ĠWood":7791,"ĠSally":7792,"Ġfort":7793,"ĠBab":7794,"Ġconsequ":7795,"Ġhearing":7796,"ĠDu":7797,"Ġsecre":7798,"Ġshirt":7799,"Ġjazz":7800,"Ġmeal":7801,"ĠJud":7802,"Ġ,.":7803,"ãģĿ":7804,"Ġweaker":7805,"ĠChildren":7806,"rying":7807,"...\"":7808,"Ġresidence":7809,"Ġnewline":7810,"Ġdeser":7811,"Ġwanting":7812,"Ġpreserve":7813,"ĠArm":7814,"Ġuseless":7815,"ĠStr":7816,"hattan":7817,"Ġdram":7818,"Ġmanagement":7819,"Ġpartner":7820,"airs":7821,"Ġcheese":7822,"Ġprovince":7823,"Ġàª¤":7824,"Ġseek":7825,"version":7826,"à²¯":7827,"Ġzinc":7828,"à©Ĥ":7829,"áŀļ":7830,"ĠSpain":7831,"Ġmissed":7832,"Ġputs":7833,"Ġguide":7834,"ĠAdam":7835,"Ġdistingu":7836,"Ġà°¸":7837,"ennessee":7838,"Ġnationalteam":7839,"anna":7840,"cule":7841,"Ġconverted":7842,"Ġparking":7843,"ĠColumb":7844,"Ġpoorly":7845,"ãģ§ãģĻ":7846,"Ġprograms":7847,"poration":7848,"Ġmachines":7849,"Ġforests":7850,"Ġvisiting":7851,"ĠSpec":7852,"Ġnucleus":7853,"Ġperfectly":7854,"Ġfault":7855,"Ġbronchioles":7856,"Ġepisodes":7857,"Ġhormone":7858,"Ġinjured":7859,"ĠRoad":7860,"Ġpreferred":7861,"Ġscientist":7862,"Ġboundaries":7863,"Ġprincipal":7864,"Ġrodent":7865,"Ġcousin":7866,"Ġscenes":7867,"Ġtriples":7868,"edding":7869,"Ġcomprising":7870,"Ġadministrative":7871,"ĠRichard":7872,"Ġdomestic":7873,"Ġà¤Ķà¤°":7874,"Ġauthors":7875,"57":7876,"81":7877,":-":7878,"AD":7879,"MB":7880,"Pl":7881,"count":7882,"ev":7883,"mic":7884,"night":7885,"ption":7886,"she":7887,"sylvania":7888,"uz":7889,"uce":7890,"ws":7891,"ystem":7892,"ª×":7893,"Äĩ":7894,"Å¡":7895,"æĹ":7896,"Ġtip":7897,"Ġtables":7898,"Ġtaught":7899,"Ġaid":7900,"Ġwid":7901,"Ġbes":7902,"ania":7903,"anches":7904,"Ġpock":7905,"Ġpiston":7906,"oute":7907,"Ġinver":7908,"alis":7909,"Ġhits":7910,"iced":7911,"Ġgly":7912,"Ġlad":7913,"Ġlens":7914,"Ġlays":7915,"ĠTur":7916,"ĠTechn":7917,"Ġnie":7918,"ĠIII":7919,"ĠAlp":7920,"Ġears":7921,"Ġbees":7922,"Ġbeak":7923,"ĠWal":7924,"ĠSO":7925,"ĠSug":7926,"oop":7927,"ĠCir":7928,"ĠCup":7929,"uries":7930,"adow":7931,"Ġstuck":7932,"ĠPositive":7933,"agnetic":7934,"Ġriding":7935,"olis":7936,"oline":7937,"Ġhel":7938,"ĠMa":7939,"ĠMont":7940,"ĠMex":7941,"Ġchosen":7942,"ĠFire":7943,"Ġjus":7944,"ansion":7945,"Ġmeant":7946,"Ġmeals":7947,"mentation":7948,"ĠLord":7949,"Ġaren":7950,"ĠReference":7951,"Ġacceler":7952,"Ġopens":7953,"odox":7954,"ĠThree":7955,"Ġallerg":7956,"onder":7957,"Ġgraph":7958,"Ġreser":7959,"stra":7960,"Ġblocks":7961,"Ġgeneration":7962,"ciples":7963,"Ġdesert":7964,"à¨ľ":7965,"ãĤ¯":7966,"ãĤ·":7967,"Ġquit":7968,"ãĥĥ":7969,"Ġii":7970,"ĠDeterm":7971,"àµĩ":7972,"Ġ180":7973,"ĠØ§ÙĨ":7974,"à§ĭ":7975,"Ġspecified":7976,"Ġminor":7977,"Ġreturns":7978,"Ġfrance":7979,"Ġreplacing":7980,"Ġ1986":7981,"Ġdevelops":7982,"leyball":7983,"Ġfunctions":7984,"ĠSever":7985,"ennsylvania":7986,"Ġ1974":7987,"Ġexpands":7988,"ymph":7989,"Ġrocket":7990,"Ġinches":7991,"Ġadvent":7992,"Ġ1966":7993,"ceptors":7994,"Ġdepth":7995,"Ġkeyboard":7996,"ĠPoland":7997,"Ġgovernments":7998,"Ġspeakers":7999,"Ġlaws":8000,"Ġcycles":8001,"Ġrepresented":8002,"Ġvisitors":8003,"Ġstreams":8004,"Ġpreviously":8005,"Ġcritical":8006,"ĠInsulin":8007,"ĠInstitute":8008,"Ġhemisphere":8009,"Ġbehaviors":8010,"à¸Ļà¸":8011,"Ġmanufactur":8012,"Ġhistorical":8013,"ĠÙģÙĬ":8014,"Ġembry":8015,"Ġentertainment":8016,"Ġchromosomes":8017,"ruption":8018,"ĠQueen":8019,"Ġinitially":8020,"Ġlipids":8021,"ĠStore":8022,"ĠLanguage":8023,"Ġhurricane":8024,"Ġcigare":8025,"Ġfreedom":8026,"Ġsupermarket":8027,"Ġatmospheric":8028,"36":8029,"CD":8030,"En":8031,"So":8032,"US":8033,"aled":8034,"iro":8035,"kins":8036,"rish":8037,"uch":8038,"Ã¬":8039,"è¡":8040,"enge":8041,"isions":8042,"Ġsap":8043,"Ġcable":8044,"Ġbicy":8045,"Ġhoney":8046,"icated":8047,"Ġlouis":8048,"ĠTre":8049,"Ġnaturally":8050,"ĠIreland":8051,"omy":8052,"Ġelder":8053,"stead":8054,"Ġyuan":8055,"ĠSulfur":8056,"Ġstal":8057,"amina":8058,"Ġorbit":8059,"Ġrat":8060,"ĠHu":8061,"ĠHope":8062,"Ġconserv":8063,"osure":8064,"ĠMer":8065,"ĠDid":8066,"Ġneoc":8067,"ĠRay":8068,"ĠRel":8069,"ulous":8070,"ushed":8071,"ĠEvent":8072,"ando":8073,"ĠFACE":8074,"ĠOk":8075,"Ġcomposer":8076,"eper":8077,"Ġworker":8078,"Ġworkers":8079,"Ġuniverse":8080,"ĠØ²":8081,"Ġroof":8082,"Ġoffered":8083,"à°¶":8084,"Ġhappiness":8085,"elly":8086,"Ġcovers":8087,"Ġpreced":8088,"Ġappointed":8089,"oster":8090,"awa":8091,"aws":8092,"Ġfoods":8093,"àµĭ":8094,"vestig":8095,"Ġoccasion":8096,"Ġmonarch":8097,"ibb":8098,"Ġskills":8099,"Ġshowing":8100,"ĠSea":8101,"Ġattrib":8102,"Ġoccurred":8103,"Ġsongwriter":8104,"letes":8105,"Ġelementary":8106,"Ġnationalyears":8107,"ĠAtlantic":8108,"Ġ1969":8109,"Ġreached":8110,"Ġsigned":8111,"à«ĩ.":8112,"Ġviral":8113,"ackson":8114,"Ġcooling":8115,"Ġoperation":8116,"Ġà®®":8117,"Ġparticipant":8118,"Ġdrawn":8119,"ĠWorks":8120,"ãģĹãģ¦":8121,"Ġlegisl":8122,"Ġmolecule":8123,"Ġsells":8124,"Ġgrandfather":8125,"Ġfrequencies":8126,"ophagus":8127,"Ġregional":8128,"aphragm":8129,"Ġconsistent":8130,"Ġingots":8131,"Ġmethod":8132,"Ġharv":8133,"Ġliterature":8134,"ĠSuper":8135,"Ġnetwork":8136,"Ġjourney":8137,"ĠMalayalam":8138,"Ġfantastic":8139,"Ġsettled":8140,"Ġfederal":8141,"Ġglaciers":8142,"ĠMountain":8143,"ancisco":8144,"Ġpremier":8145,"ĠCongress":8146,"Ġdespite":8147,"Ġprotozoa":8148,"ĠPresbyterian":8149,"Ġlazy":8150,"ĠSusan":8151,"Ġincomplete":8152,"ĠTaiwan":8153,"58":8154,"92":8155,"IF":8156,"[]":8157,"dated":8158,"han":8159,"harm":8160,"iac":8161,"ko":8162,"natural":8163,"zer":8164,"Ð¼":8165,"ä¼":8166,"Ġ___":8167,"Ġtropical":8168,"Ġsisters":8169,"atical":8170,"Ġwel":8171,"Ġwedding":8172,"Ġol":8173,"Ġfi":8174,"Ġfailed":8175,"Ġbands":8176,"tiles":8177,"oric":8178,"ortex":8179,"tional":8180,"arg":8181,"Ġhibern":8182,"Ġgasses":8183,"ĠTown":8184,"Ġnfl":8185,"ĠId":8186,"ĠAct":8187,"Ġreven":8188,"ĠWang":8189,"ĠCre":8190,"ĠCome":8191}